{
  "version": "1.0",
  "truncation": null,
  "padding": null,
  "added_tokens": [
    {
      "id": 0,
      "content": "<pad>",
      "single_word": false,
      "lstrip": false,
      "rstrip": false,
      "normalized": false,
      "special": true
    },
    {
      "id": 1,
      "content": "<unk>",
      "single_word": false,
      "lstrip": false,
      "rstrip": false,
      "normalized": false,
      "special": true
    },
    {
      "id": 2,
      "content": "<s>",
      "single_word": false,
      "lstrip": false,
      "rstrip": false,
      "normalized": false,
      "special": true
    },
    {
      "id": 3,
      "content": "</s>",
      "single_word": false,
      "lstrip": false,
      "rstrip": false,
      "normalized": false,
      "special": true
    }
  ],
  "normalizer": {
    "type": "Sequence",
    "normalizers": [
      {
        "type": "Nmt"
      },
      {
        "type": "NFKC"
      },
      {
        "type": "Replace",
        "pattern": {
          "Regex": " {2,}"
        },
        "content": " "
      }
    ]
  },
  "pre_tokenizer": {
    "type": "Metaspace",
    "replacement": "▁",
    "prepend_scheme": "always",
    "split": true
  },
  "post_processor": {
    "type": "TemplateProcessing",
    "single": [
      {
        "Sequence": {
          "id": "A",
          "type_id": 0
        }
      }
    ],
    "pair": [
      {
        "Sequence": {
          "id": "A",
          "type_id": 0
        }
      },
      {
        "Sequence": {
          "id": "B",
          "type_id": 1
        }
      }
    ],
    "special_tokens": {}
  },
  "decoder": {
    "type": "Metaspace",
    "replacement": "▁",
    "prepend_scheme": "always",
    "split": true
  },
  "model": {
    "type": "Unigram",
    "unk_id": null,
    "vocab": [
      [
        "<pad>",
        0.0
      ],
      [
        "<unk>",
        0.0
      ],
      [
        "<s>",
        0.0
      ],
      [
        "</s>",
        0.0
      ],
      [
        "▁ya",
        -3.1846501200709305
      ],
      [
        "▁na",
        -3.322290531912447
      ],
      [
        "▁wa",
        -3.608663834468434
      ],
      [
        ",",
        -3.7868490788006377
      ],
      [
        ".",
        -3.939584239707262
      ],
      [
        "▁",
        -4.0135640901231255
      ],
      [
        "▁kwa",
        -4.040901528301742
      ],
      [
        "a",
        -4.260773113714805
      ],
      [
        "▁Mheshimiwa",
        -4.6034850465780845
      ],
      [
        "▁ni",
        -4.607507599215344
      ],
      [
        "▁katika",
        -4.715375069855071
      ],
      [
        "▁za",
        -4.756858130102698
      ],
      [
        "▁la",
        -5.023132577098366
      ],
      [
        "▁kuwa",
        -5.2937296520761326
      ],
      [
        "▁Spika,",
        -5.3257244121103415
      ],
      [
        "▁Serikali",
        -5.475143757930926
      ],
      [
        "▁cha",
        -5.563642782804205
      ],
      [
        "▁ili",
        -5.603665425831666
      ],
      [
        "▁kama",
        -5.611856269078613
      ],
      [
        "▁kwamba",
        -5.7091702692286095
      ],
      [
        "▁ku",
        -5.822391145094384
      ],
      [
        "▁kwenye",
        -5.936844147460974
      ],
      [
        "▁hii",
        -5.955570675555315
      ],
      [
        "▁mwaka",
        -5.986543270919629
      ],
      [
        "i",
        -5.989971799455791
      ],
      [
        "▁hiyo",
        -6.02640010169385
      ],
      [
        "▁vya",
        -6.03531054575503
      ],
      [
        "▁Kwa",
        -6.051703372738265
      ],
      [
        "▁Naibu",
        -6.064975011355701
      ],
      [
        "▁Wizara",
        -6.0708607800687755
      ],
      [
        "▁sasa",
        -6.102228121257918
      ],
      [
        "▁Waziri",
        -6.184114134648935
      ],
      [
        "▁sana",
        -6.197910504118525
      ],
      [
        "▁lakini",
        -6.201347318749715
      ],
      [
        "▁nchi",
        -6.204760658324648
      ],
      [
        "wa",
        -6.239009880634887
      ],
      [
        "o",
        -6.299122724702107
      ],
      [
        "u",
        -6.31057922651169
      ],
      [
        "▁ambayo",
        -6.312204809492771
      ],
      [
        "▁kazi",
        -6.332215530574542
      ],
      [
        "▁tu",
        -6.352997689823519
      ],
      [
        "▁ina",
        -6.35601571434427
      ],
      [
        "▁watu",
        -6.391123619921819
      ],
      [
        "▁pamoja",
        -6.3994182440330185
      ],
      [
        "na",
        -6.402736655949148
      ],
      [
        "▁fedha",
        -6.40751274528529
      ],
      [
        "s",
        -6.455565528166881
      ],
      [
        "▁(Makofi)",
        -6.4570928259359395
      ],
      [
        "▁wananchi",
        -6.458723539719111
      ],
      [
        "▁yake",
        -6.48720579728252
      ],
      [
        "▁sababu",
        -6.489682436289007
      ],
      [
        "ni",
        -6.507431271656545
      ],
      [
        "e",
        -6.51162797466138
      ],
      [
        "▁wakati",
        -6.518854008801755
      ],
      [
        "?",
        -6.52057758208502
      ],
      [
        "▁wana",
        -6.542473100058329
      ],
      [
        "▁au",
        -6.552699336382355
      ],
      [
        ":",
        -6.553498842660495
      ],
      [
        ";",
        -6.56290976823154
      ],
      [
        "▁ambao",
        -6.588972169122677
      ],
      [
        "▁pia",
        -6.604549014632337
      ],
      [
        "▁M",
        -6.642923030488587
      ],
      [
        "▁kutoka",
        -6.6517190787385605
      ],
      [
        "▁huo",
        -6.6735838702872154
      ],
      [
        "▁kuna",
        -6.674636929055518
      ],
      [
        "▁Mwenyekiti,",
        -6.6892737892193015
      ],
      [
        "▁hiyo,",
        -6.703762209841235
      ],
      [
        "▁Kamati",
        -6.727153523329248
      ],
      [
        ")",
        -6.735766270849281
      ],
      [
        "▁hili",
        -6.736401651209492
      ],
      [
        "▁huu",
        -6.740892494128753
      ],
      [
        "▁Tanzania",
        -6.757186422623393
      ],
      [
        "▁hivyo",
        -6.764750970662863
      ],
      [
        "▁maeneo",
        -6.769810472020104
      ],
      [
        "ya",
        -6.773691563503453
      ],
      [
        "▁hata",
        -6.778263018703523
      ],
      [
        "▁zaidi",
        -6.778848957450505
      ],
      [
        "▁moja",
        -6.791426448342914
      ],
      [
        "▁ana",
        -6.805813649157651
      ],
      [
        "▁baada",
        -6.824758758726427
      ],
      [
        "▁hivi",
        -6.83437330180857
      ],
      [
        "▁tuna",
        -6.835081275774979
      ],
      [
        "▁hapa",
        -6.836734152108734
      ],
      [
        "▁Bunge",
        -6.839457024997039
      ],
      [
        "▁kutoa",
        -6.8579650364297216
      ],
      [
        "▁kila",
        -6.888684616174638
      ],
      [
        "▁hilo",
        -6.889655364972681
      ],
      [
        "▁ime",
        -6.8928541762410305
      ],
      [
        "▁ali",
        -6.908291167191191
      ],
      [
        "▁ajili",
        -6.937294882228139
      ],
      [
        "▁kufanya",
        -6.941327454713168
      ],
      [
        "▁Wilaya",
        -6.943107752210048
      ],
      [
        "▁hayo",
        -6.9491670099649205
      ],
      [
        "▁maji",
        -6.954172616444197
      ],
      [
        "▁w",
        -6.955473560314356
      ],
      [
        "▁wake",
        -6.961883994159786
      ],
      [
        "ji",
        -6.963202917049854
      ],
      [
        "▁naomba",
        -6.967189611664661
      ],
      [
        "▁hali",
        -6.96968870778932
      ],
      [
        "▁Rais",
        -6.981252296360601
      ],
      [
        "▁kubwa",
        -6.981967805005118
      ],
      [
        "▁kuhusu",
        -6.984046787476574
      ],
      [
        "▁mbalimbali",
        -6.991256229924117
      ],
      [
        "m",
        -6.993898539816783
      ],
      [
        "▁nchini",
        -6.999013896418576
      ],
      [
        "▁suala",
        -7.003131331644573
      ],
      [
        "▁hizo",
        -7.004890307560984
      ],
      [
        "▁hadi",
        -7.0158822369890075
      ],
      [
        "▁Mkuu",
        -7.020728813214609
      ],
      [
        "▁Spika",
        -7.0245013896810615
      ],
      [
        "▁wame",
        -7.039148949988965
      ],
      [
        "▁vile",
        -7.045168419256337
      ],
      [
        "▁(",
        -7.047837908601114
      ],
      [
        "n",
        -7.048429795521727
      ],
      [
        "▁MHE.",
        -7.055804724832372
      ],
      [
        "▁kweli",
        -7.057394995022486
      ],
      [
        "▁Lakini",
        -7.070629175193584
      ],
      [
        "▁m",
        -7.074554932119499
      ],
      [
        "▁muda",
        -7.082822810591631
      ],
      [
        "▁-",
        -7.085585752152079
      ],
      [
        "▁nafasi",
        -7.0908079033662865
      ],
      [
        "▁una",
        -7.091503251216611
      ],
      [
        "▁wote",
        -7.107409423135406
      ],
      [
        "▁Sheria",
        -7.1106134064938455
      ],
      [
        "▁asilimia",
        -7.111260330578537
      ],
      [
        "▁Mbunge",
        -7.115763018019653
      ],
      [
        "▁ame",
        -7.123698847288043
      ],
      [
        "▁hatua",
        -7.150129549261674
      ],
      [
        "▁ndani",
        -7.158660782274573
      ],
      [
        "▁juu",
        -7.168796365115163
      ],
      [
        "▁Mheshimiw",
        -7.16897213966968
      ],
      [
        "▁yetu",
        -7.177241444981769
      ],
      [
        "▁kutokana",
        -7.1862446595682545
      ],
      [
        "▁Taifa",
        -7.187973353928275
      ],
      [
        "▁miaka",
        -7.19293693271622
      ],
      [
        "▁huduma",
        -7.19532998282634
      ],
      [
        "▁ambazo",
        -7.195702424076602
      ],
      [
        "▁barabara",
        -7.204854372530688
      ],
      [
        "l",
        -7.209467398083845
      ],
      [
        "▁siku",
        -7.2155264541866035
      ],
      [
        "▁eneo",
        -7.219854164215336
      ],
      [
        "▁mambo",
        -7.228158551600941
      ],
      [
        "▁yao",
        -7.230905936328412
      ],
      [
        "▁maana",
        -7.245923216605769
      ],
      [
        "▁haya",
        -7.248585448684853
      ],
      [
        "▁hawa",
        -7.258557393288257
      ],
      [
        "▁mimi",
        -7.2587667230083746
      ],
      [
        "▁hao",
        -7.2650986350432785
      ],
      [
        "▁kupata",
        -7.26860988740448
      ],
      [
        "▁ndiyo",
        -7.269839243973998
      ],
      [
        "▁kati",
        -7.27543207706735
      ],
      [
        "▁alisema",
        -7.2781192077729955
      ],
      [
        "▁shilingi",
        -7.283133397030763
      ],
      [
        "▁kwanza",
        -7.290293825760989
      ],
      [
        "▁mara",
        -7.292796630719595
      ],
      [
        "▁sheria",
        -7.300941134267154
      ],
      [
        "▁Sasa",
        -7.302268331558258
      ],
      [
        "▁Katika",
        -7.311463963836122
      ],
      [
        "▁wengi",
        -7.315346507589451
      ],
      [
        "▁wao",
        -7.316841578608264
      ],
      [
        "▁Halmashauri",
        -7.31767081499204
      ],
      [
        "▁mtu",
        -7.319643312555554
      ],
      [
        "la",
        -7.320107252004142
      ],
      [
        "ka",
        -7.323359828163822
      ],
      [
        "▁hoja",
        -7.333348794887968
      ],
      [
        "zi",
        -7.336424341329693
      ],
      [
        "▁bado",
        -7.341659534296818
      ],
      [
        "▁taarifa",
        -7.342002268752642
      ],
      [
        "▁sehemu",
        -7.342119950614032
      ],
      [
        "li",
        -7.342132428507611
      ],
      [
        "▁ambapo",
        -7.3434720394172945
      ],
      [
        "▁hizi",
        -7.350678033715877
      ],
      [
        "▁tatizo",
        -7.350862634661095
      ],
      [
        "▁bila",
        -7.352364270586994
      ],
      [
        "▁pale",
        -7.359074610525029
      ],
      [
        "▁Dar",
        -7.359335032086111
      ],
      [
        "w",
        -7.364029764813811
      ],
      [
        "▁hasa",
        -7.364899186569277
      ],
      [
        "▁zina",
        -7.366433477955663
      ],
      [
        "▁U",
        -7.3687171114272
      ],
      [
        "▁wali",
        -7.368766587551754
      ],
      [
        "▁serikali",
        -7.38655162285732
      ],
      [
        "▁Mkoa",
        -7.394767817439391
      ],
      [
        "▁walio",
        -7.397637509639871
      ],
      [
        "▁zao",
        -7.405324730834087
      ],
      [
        "ko",
        -7.408827389577581
      ],
      [
        "▁mpaka",
        -7.408876861866313
      ],
      [
        "▁es",
        -7.412120805834537
      ],
      [
        "▁si",
        -7.412940326538562
      ],
      [
        "▁kupitia",
        -7.414002148793315
      ],
      [
        "▁chini",
        -7.416272251812645
      ],
      [
        "▁wetu",
        -7.42881692949509
      ],
      [
        "▁ita",
        -7.429401124905507
      ],
      [
        "▁nje",
        -7.436316036505794
      ],
      [
        "▁Ni",
        -7.441916499295209
      ],
      [
        "▁zote",
        -7.444135032166736
      ],
      [
        "y",
        -7.455553387160807
      ],
      [
        "▁kabisa",
        -7.457924696991748
      ],
      [
        "▁WA",
        -7.460460475080163
      ],
      [
        "-",
        -7.465908068740628
      ],
      [
        "▁baadhi",
        -7.46683957663412
      ],
      [
        "ku",
        -7.469023318033821
      ],
      [
        "tu",
        -7.471547455400962
      ],
      [
        "▁mkono",
        -7.480025028190308
      ],
      [
        "▁utaratibu",
        -7.480265277385024
      ],
      [
        "toa",
        -7.480599424617566
      ],
      [
        "▁leo",
        -7.4828111334126355
      ],
      [
        "▁Aidha,",
        -7.486546769906955
      ],
      [
        "le",
        -7.491087439251325
      ],
      [
        "▁gani",
        -7.4915393565463635
      ],
      [
        "▁kwamba,",
        -7.493259004004681
      ],
      [
        "▁Na",
        -7.497568417088697
      ],
      [
        "▁ume",
        -7.5077182458820015
      ],
      [
        "▁haki",
        -7.514492338278062
      ],
      [
        "▁yote",
        -7.518591124053996
      ],
      [
        "▁wanao",
        -7.521124898831625
      ],
      [
        "▁jambo",
        -7.5290976664336515
      ],
      [
        "▁uwezo",
        -7.529596867452478
      ],
      [
        "▁Wabunge",
        -7.532413824862058
      ],
      [
        "▁maendeleo",
        -7.532801453461396
      ],
      [
        "▁nyingine",
        -7.534720344497904
      ],
      [
        "▁sisi",
        -7.534962961715664
      ],
      [
        "▁milioni",
        -7.53638072451168
      ],
      [
        "ki",
        -7.539272911513768
      ],
      [
        "▁nyingi",
        -7.5416107404837405
      ],
      [
        "▁ujenzi",
        -7.545431412324595
      ],
      [
        "▁hu",
        -7.550769027205455
      ],
      [
        "▁wale",
        -7.5540138724677455
      ],
      [
        "▁mmoja",
        -7.557147052834413
      ],
      [
        "▁kiasi",
        -7.558728168388543
      ],
      [
        "▁WAZIRI",
        -7.56326092009629
      ],
      [
        "▁utekelezaji",
        -7.569341189031087
      ],
      [
        "▁J",
        -7.569922140396782
      ],
      [
        "▁Ku",
        -7.57601211023491
      ],
      [
        "▁kutumia",
        -7.579045630742403
      ],
      [
        "▁shughuli",
        -7.580008151382778
      ],
      [
        "▁mpango",
        -7.58240325931925
      ],
      [
        "we",
        -7.583277880973675
      ],
      [
        "▁kwenda",
        -7.58574107199909
      ],
      [
        "▁wengine",
        -7.5877891015584815
      ],
      [
        "▁ile",
        -7.596313312310024
      ],
      [
        "▁kuhakikisha",
        -7.602772895572336
      ],
      [
        "▁matumizi",
        -7.604030737038523
      ],
      [
        "▁muhimu",
        -7.604702625807496
      ],
      [
        "▁ambaye",
        -7.607914341194812
      ],
      [
        "▁elimu",
        -7.610408388868105
      ],
      [
        "▁lazima",
        -7.611325772347401
      ],
      [
        "▁hapo",
        -7.612936851935309
      ],
      [
        "▁tume",
        -7.615540907678087
      ],
      [
        "fanya",
        -7.61581099796506
      ],
      [
        "▁ma",
        -7.616460300507507
      ],
      [
        "▁kipindi",
        -7.619418107736466
      ],
      [
        "▁nini",
        -7.62267353977893
      ],
      [
        "▁n",
        -7.634360043776144
      ],
      [
        "▁NA",
        -7.639192922361332
      ],
      [
        "▁basi",
        -7.640393127677633
      ],
      [
        "pata",
        -7.640651134768692
      ],
      [
        "▁vizuri",
        -7.641107713089003
      ],
      [
        "▁huyo",
        -7.641615536001465
      ],
      [
        "za",
        -7.643441724901997
      ],
      [
        "▁Ofisi",
        -7.643838765635797
      ],
      [
        "▁yangu",
        -7.647791388700368
      ],
      [
        "▁Afrika",
        -7.660238291693941
      ],
      [
        "▁aki",
        -7.661108358244574
      ],
      [
        "▁viongozi",
        -7.661526344695636
      ],
      [
        "▁Watanzania",
        -7.661789286077447
      ],
      [
        "t",
        -7.663648773779169
      ],
      [
        "▁swali",
        -7.665233867182431
      ],
      [
        "▁hakuna",
        -7.666407638238754
      ],
      [
        "▁kina",
        -7.668051615035793
      ],
      [
        "▁zime",
        -7.671100010883682
      ],
      [
        "▁miradi",
        -7.678080525504807
      ],
      [
        "▁umeme",
        -7.680762548675606
      ],
      [
        "▁watoto",
        -7.681989935779679
      ],
      [
        "▁inayo",
        -7.68252548703418
      ],
      [
        "▁ambalo",
        -7.68710907663365
      ],
      [
        "▁lina",
        -7.688296063495848
      ],
      [
        "▁vijana",
        -7.693417931690124
      ],
      [
        "▁ata",
        -7.696648477908432
      ],
      [
        "d",
        -7.698777093090666
      ],
      [
        "▁napenda",
        -7.701764522065034
      ],
      [
        "▁waki",
        -7.702648533580218
      ],
      [
        "▁mkubwa",
        -7.703218178786317
      ],
      [
        "▁Maendeleo",
        -7.709792043531964
      ],
      [
        "▁mradi",
        -7.71010569023564
      ],
      [
        "▁bilioni",
        -7.710975746347486
      ],
      [
        "▁nzuri",
        -7.711867539303695
      ],
      [
        "▁chama",
        -7.712109244903145
      ],
      [
        "▁kusema",
        -7.71371063928588
      ],
      [
        "▁matatizo",
        -7.72240203464375
      ],
      [
        "▁A",
        -7.723105296319389
      ],
      [
        "▁kui",
        -7.725797229083096
      ],
      [
        "▁hicho",
        -7.729034153447012
      ],
      [
        "▁mazingira",
        -7.729558620286163
      ],
      [
        "▁wenye",
        -7.733988467913585
      ],
      [
        "▁kilimo",
        -7.737076489250448
      ],
      [
        "NAIBU",
        -7.73734032443531
      ],
      [
        "▁Waheshimiwa",
        -7.73762298359236
      ],
      [
        "▁Wa",
        -7.74042578361508
      ],
      [
        "▁ki",
        -7.7409285365703475
      ],
      [
        "▁iliyo",
        -7.750031693919546
      ],
      [
        "▁namna",
        -7.751707506018514
      ],
      [
        "ri",
        -7.755810197799528
      ],
      [
        "▁mwezi",
        -7.759489089182113
      ],
      [
        "▁uta",
        -7.760323495608265
      ],
      [
        "▁mwa",
        -7.7684044849503024
      ],
      [
        "▁tena",
        -7.769062644323974
      ],
      [
        "▁shule",
        -7.772851968184588
      ],
      [
        "ta",
        -7.773659717211149
      ],
      [
        "▁tayari",
        -7.77538001968623
      ],
      [
        ",\"",
        -7.776360748270919
      ],
      [
        "si",
        -7.777532910241662
      ],
      [
        "▁kuongeza",
        -7.777555186936253
      ],
      [
        "▁Tume",
        -7.7816350728008175
      ],
      [
        "▁sekta",
        -7.785950601469256
      ],
      [
        "ti",
        -7.788730205450125
      ],
      [
        "▁kabla",
        -7.78886829152788
      ],
      [
        "▁zinazo",
        -7.791819292991935
      ],
      [
        "▁W",
        -7.791969893417871
      ],
      [
        "▁sana.",
        -7.800452777385061
      ],
      [
        "▁huko",
        -7.805924913618593
      ],
      [
        "ma",
        -7.808743384517921
      ],
      [
        "▁bajeti",
        -7.817433720608705
      ],
      [
        "▁njia",
        -7.817580704355629
      ],
      [
        "po",
        -7.819859488706673
      ],
      [
        "▁aka",
        -7.820373699624632
      ],
      [
        "▁kule",
        -7.823092024827432
      ],
      [
        "!",
        -7.827373528227014
      ],
      [
        "▁biashara",
        -7.833612624564852
      ],
      [
        "▁Fedha",
        -7.83499231112803
      ],
      [
        "▁wata",
        -7.8384722124831345
      ],
      [
        "▁nyumba",
        -7.839206419404464
      ],
      [
        "weza",
        -7.840505411359734
      ],
      [
        "sema",
        -7.842286507023484
      ],
      [
        "▁upande",
        -7.842524973373628
      ],
      [
        "anza",
        -7.851448657370534
      ],
      [
        "taka",
        -7.855892643830764
      ],
      [
        "ke",
        -7.857560928907757
      ],
      [
        "▁mafunzo",
        -7.86158967949012
      ],
      [
        "▁YA",
        -7.86831737208186
      ],
      [
        "▁kum",
        -7.87172914695658
      ],
      [
        "▁gharama",
        -7.878028125794819
      ],
      [
        "fu",
        -7.878425311503737
      ],
      [
        "▁habari",
        -7.878789146623216
      ],
      [
        "▁Bajeti",
        -7.879626954748387
      ],
      [
        "▁kwani",
        -7.882154521669703
      ],
      [
        "▁ndio",
        -7.882440275799764
      ],
      [
        "▁Je,",
        -7.883429188760374
      ],
      [
        "▁li",
        -7.889829328131247
      ],
      [
        "▁kw",
        -7.894855733207022
      ],
      [
        "p",
        -7.895286160778156
      ],
      [
        "▁Mwenyekiti",
        -7.895559790677027
      ],
      [
        "▁uchumi",
        -7.896994817947872
      ],
      [
        "▁wakulima",
        -7.897088219740786
      ],
      [
        "▁Ma",
        -7.897712682630715
      ],
      [
        "▁...",
        -7.899138319467145
      ],
      [
        "▁kujenga",
        -7.905139785255601
      ],
      [
        "▁Marekani",
        -7.907236706089321
      ],
      [
        "k",
        -7.908025168454888
      ],
      [
        "f",
        -7.90817899898771
      ],
      [
        "▁kodi",
        -7.910345301772192
      ],
      [
        "▁jana",
        -7.912325309539909
      ],
      [
        "▁kutekeleza",
        -7.916250717903552
      ],
      [
        "▁mujibu",
        -7.917991356136492
      ],
      [
        "▁bei",
        -7.918861684957804
      ],
      [
        "▁lime",
        -7.919453520255088
      ],
      [
        "▁Hata",
        -7.925296092551292
      ],
      [
        "▁yenye",
        -7.926748783252645
      ],
      [
        "▁mazao",
        -7.933242706368436
      ],
      [
        "sha",
        -7.933688053970727
      ],
      [
        "▁mbili",
        -7.936386248945574
      ],
      [
        "▁ikiwa",
        -7.941274413820379
      ],
      [
        "ra",
        -7.942130295512227
      ],
      [
        "▁maisha",
        -7.951346309621734
      ],
      [
        "lo",
        -7.953486306575256
      ],
      [
        "▁Salaam",
        -7.957548507158831
      ],
      [
        "r",
        -7.961942114910308
      ],
      [
        "▁lengo",
        -7.965847466111912
      ],
      [
        "▁jumla",
        -7.9677001534532685
      ],
      [
        "▁msingi",
        -7.96921024871558
      ],
      [
        "▁zilizo",
        -7.972165145379028
      ],
      [
        "▁siyo",
        -7.975065970230659
      ],
      [
        "▁I",
        -7.975610768922648
      ],
      [
        "▁uli",
        -7.977716594160185
      ],
      [
        "▁tuta",
        -7.98101652735749
      ],
      [
        "),",
        -7.981854007083022
      ],
      [
        "▁kuu",
        -7.982522201827287
      ],
      [
        "▁Ki",
        -7.98731166907325
      ],
      [
        "te",
        -7.987938722544529
      ],
      [
        "▁Mikoa",
        -7.988554868883552
      ],
      [
        "▁Mahakama",
        -7.991036859408169
      ],
      [
        "▁Jimbo",
        -7.993243112304274
      ],
      [
        "▁mpya",
        -7.994604655619735
      ],
      [
        "▁masuala",
        -7.996735377835755
      ],
      [
        "▁hotuba",
        -7.997552450292702
      ],
      [
        "▁bora",
        -7.998582740069919
      ],
      [
        "▁zake",
        -8.001093018851885
      ],
      [
        "▁huku",
        -8.003177963753497
      ],
      [
        "▁Mwaka",
        -8.006418108631639
      ],
      [
        "▁Elimu",
        -8.012962932206932
      ],
      [
        "▁ardhi",
        -8.017861268791593
      ],
      [
        "▁mengi",
        -8.018198185887993
      ],
      [
        "▁watumishi",
        -8.018382778584897
      ],
      [
        "▁of",
        -8.019632799630319
      ],
      [
        "▁dhidi",
        -8.021006789690716
      ],
      [
        "▁wanafunzi",
        -8.021407348374
      ],
      [
        "▁Shilingi",
        -8.022192682667043
      ],
      [
        "▁Makofi",
        -8.0226279890818
      ],
      [
        "ja",
        -8.024467934321093
      ],
      [
        "▁Taasisi",
        -8.027022793822644
      ],
      [
        "▁yame",
        -8.027671393136076
      ],
      [
        "▁mfumo",
        -8.028715455971787
      ],
      [
        "▁kuweza",
        -8.029778167997158
      ],
      [
        "▁Muungano",
        -8.032158053302185
      ],
      [
        "▁Chama",
        -8.033746447500189
      ],
      [
        "▁Umoja",
        -8.038311384520682
      ],
      [
        "▁aina",
        -8.041622749414058
      ],
      [
        "▁kiwango",
        -8.046281957601103
      ],
      [
        "▁aliye",
        -8.046966211389233
      ],
      [
        "▁mengine",
        -8.047684917750356
      ],
      [
        "▁Polisi",
        -8.051085896637057
      ],
      [
        "▁nina",
        -8.054739253624254
      ],
      [
        "▁nguvu",
        -8.055512815499405
      ],
      [
        "▁yanayo",
        -8.056045137660924
      ],
      [
        "▁vita",
        -8.05778187354954
      ],
      [
        "▁Shirika",
        -8.058824954562105
      ],
      [
        "▁and",
        -8.059495079121577
      ],
      [
        "▁iki",
        -8.060491323561426
      ],
      [
        "▁makubwa",
        -8.066042690530768
      ],
      [
        "▁nime",
        -8.067386654033779
      ],
      [
        "▁kuboresha",
        -8.067864335942499
      ],
      [
        "▁karibu",
        -8.067967535227925
      ],
      [
        "▁kitu",
        -8.070490373387294
      ],
      [
        "▁mjini",
        -8.074983293503676
      ],
      [
        "▁ilikuwa",
        -8.077808944701156
      ],
      [
        "▁Katibu",
        -8.081059537409608
      ],
      [
        "▁the",
        -8.092470439442156
      ],
      [
        "▁ambavyo",
        -8.098172606550225
      ],
      [
        "▁mapato",
        -8.100841758215026
      ],
      [
        "▁kuweka",
        -8.106023891269825
      ],
      [
        "▁Chuo",
        -8.11301264811473
      ],
      [
        "▁zetu",
        -8.114139763539406
      ],
      [
        "▁tatu",
        -8.116297271151216
      ],
      [
        "▁CCM",
        -8.118632042120286
      ],
      [
        "chukua",
        -8.120150358455227
      ],
      [
        "▁kidogo",
        -8.120254807241215
      ],
      [
        "▁waweze",
        -8.122150328312792
      ],
      [
        "▁fursa",
        -8.12375261853551
      ],
      [
        "▁mbele",
        -8.12475677324298
      ],
      [
        "▁badala",
        -8.126824756796733
      ],
      [
        "▁hivyo,",
        -8.131714008515115
      ],
      [
        "▁SPIKA",
        -8.136121299719056
      ],
      [
        "▁uchaguzi",
        -8.137765871440429
      ],
      [
        "▁Sh",
        -8.14089005265524
      ],
      [
        "tumia",
        -8.15175699835204
      ],
      [
        "M",
        -8.15258406437588
      ],
      [
        "▁viwanda",
        -8.157796399093725
      ],
      [
        "▁kufikia",
        -8.159369119567499
      ],
      [
        "▁Maji",
        -8.16031181044422
      ],
      [
        "▁Naomba",
        -8.160564378919254
      ],
      [
        "▁sawa",
        -8.160719069328218
      ],
      [
        "▁vyombo",
        -8.161882628765605
      ],
      [
        "▁jamii",
        -8.162343511967055
      ],
      [
        "▁Pia",
        -8.16354267662932
      ],
      [
        "▁mfano",
        -8.168353862863093
      ],
      [
        "▁pili",
        -8.172493098924997
      ],
      [
        "je",
        -8.174188689660738
      ],
      [
        "▁uki",
        -8.17623583062831
      ],
      [
        "▁Sekta",
        -8.177385534665516
      ],
      [
        "▁kuto",
        -8.18047737760016
      ],
      [
        "▁vi",
        -8.180866038313527
      ],
      [
        "▁tarehe",
        -8.183320631202644
      ],
      [
        "▁T",
        -8.18341699203828
      ],
      [
        "▁unao",
        -8.184042458656752
      ],
      [
        "g",
        -8.186048823049893
      ],
      [
        "▁S",
        -8.186297629930875
      ],
      [
        "▁Benki",
        -8.187848374810137
      ],
      [
        "▁Jeshi",
        -8.189112733752305
      ],
      [
        "h",
        -8.189758778918158
      ],
      [
        "▁N",
        -8.18986341364266
      ],
      [
        "▁mkuu",
        -8.192990490709004
      ],
      [
        "▁kuona",
        -8.194339054624612
      ],
      [
        "▁kuli",
        -8.197945105828916
      ],
      [
        "▁Kama",
        -8.202110208695725
      ],
      [
        "▁wafanyakazi",
        -8.203504510634714
      ],
      [
        "▁ajira",
        -8.20632015290317
      ],
      [
        "▁hiki",
        -8.208957929896057
      ],
      [
        "zo",
        -8.20956238866167
      ],
      [
        "▁bidhaa",
        -8.212887440915841
      ],
      [
        "▁anasema",
        -8.212935502394714
      ],
      [
        "▁yaliyo",
        -8.214086271600731
      ],
      [
        "▁kuchangia",
        -8.215616002837635
      ],
      [
        "▁maelezo",
        -8.216519292312698
      ],
      [
        "▁majibu",
        -8.216885128275068
      ],
      [
        "▁zili",
        -8.217575035819198
      ],
      [
        "weka",
        -8.219057773614693
      ],
      [
        "▁kuendelea",
        -8.220714776461623
      ],
      [
        "mo",
        -8.22119992074982
      ],
      [
        "▁Katiba",
        -8.221354740765623
      ],
      [
        "kuwa",
        -8.226385322106362
      ],
      [
        "▁\"",
        -8.2323629346362
      ],
      [
        "▁Wananchi",
        -8.235900868331585
      ],
      [
        "re",
        -8.23770645124439
      ],
      [
        "▁K",
        -8.239066292292488
      ],
      [
        "▁hai",
        -8.243011499715195
      ],
      [
        "▁kupunguza",
        -8.243968226737156
      ],
      [
        "▁dawa",
        -8.247388980388278
      ],
      [
        "ro",
        -8.248002646457794
      ],
      [
        "▁mwisho",
        -8.248984741698312
      ],
      [
        "vi",
        -8.250105689076541
      ],
      [
        "▁y",
        -8.251195354960865
      ],
      [
        "▁yoyote",
        -8.252364683896374
      ],
      [
        "yo",
        -8.252454918789505
      ],
      [
        "▁ambacho",
        -8.25289635249012
      ],
      [
        "▁waka",
        -8.253391464020517
      ],
      [
        "▁majukumu",
        -8.255217462827295
      ],
      [
        "▁tangu",
        -8.255786324015151
      ],
      [
        "▁hiyo.",
        -8.257575950341293
      ],
      [
        ").",
        -8.258707333800611
      ],
      [
        "▁kura",
        -8.259665496411992
      ],
      [
        "me",
        -8.259992740902176
      ],
      [
        "▁kuanza",
        -8.261528210445531
      ],
      [
        "▁uzalishaji",
        -8.262962597213264
      ],
      [
        "▁Mpango",
        -8.263818878581857
      ],
      [
        "▁kushirikiana",
        -8.264601049397154
      ],
      [
        "▁(b)",
        -8.265382668300624
      ],
      [
        "▁jinsi",
        -8.268082860545105
      ],
      [
        "▁alikuwa",
        -8.268443173206736
      ],
      [
        "▁ule",
        -8.271994080975263
      ],
      [
        "▁ika",
        -8.274140336673707
      ],
      [
        "'",
        -8.275799072821085
      ],
      [
        "▁(a)",
        -8.275951202867109
      ],
      [
        "▁Mamlaka",
        -8.276291317408264
      ],
      [
        "▁SPIKA:",
        -8.277153296710932
      ],
      [
        "▁zile",
        -8.277930916596935
      ],
      [
        "leta",
        -8.279885874101321
      ],
      [
        "▁Baraza",
        -8.282385866504837
      ],
      [
        "▁zi",
        -8.283429619214063
      ],
      [
        "▁Kata",
        -8.284937127663072
      ],
      [
        "▁kuw",
        -8.286044970817564
      ],
      [
        "/",
        -8.288038662563755
      ],
      [
        "▁sio",
        -8.290916665845286
      ],
      [
        "▁Jamhuri",
        -8.292747065954309
      ],
      [
        "cha",
        -8.2960315572326
      ],
      [
        "▁saa",
        -8.300031252423999
      ],
      [
        "▁Muswada",
        -8.30326870581799
      ],
      [
        "▁yale",
        -8.303303988715594
      ],
      [
        "▁yeye",
        -8.304150594058493
      ],
      [
        "▁afya",
        -8.30584405020119
      ],
      [
        "▁changamoto",
        -8.308285176102462
      ],
      [
        "▁mwingine",
        -8.309157576486317
      ],
      [
        "b",
        -8.310545587987004
      ],
      [
        "▁vifaa",
        -8.311291800342943
      ],
      [
        "▁umuhimu",
        -8.312439723316828
      ],
      [
        "▁kuanzia",
        -8.31278880058593
      ],
      [
        "▁wazi",
        -8.317522482328659
      ],
      [
        "0",
        -8.32170383923552
      ],
      [
        "▁Zanzibar",
        -8.323774478946126
      ],
      [
        "▁mbali",
        -8.324224586682208
      ],
      [
        "▁mkutano",
        -8.326723820650145
      ],
      [
        "▁chakula",
        -8.326916584623733
      ],
      [
        "▁mahali",
        -8.32819515876064
      ],
      [
        "▁utafiti",
        -8.328761626210644
      ],
      [
        "▁Mfuko",
        -8.329360129351029
      ],
      [
        "▁wadau",
        -8.330197086367729
      ],
      [
        "▁Kuu",
        -8.33303235867659
      ],
      [
        "▁kuzi",
        -8.334380882796035
      ],
      [
        "▁mikopo",
        -8.335186135117022
      ],
      [
        "▁vijiji",
        -8.34021103763721
      ],
      [
        "▁vina",
        -8.342993208926245
      ],
      [
        "to",
        -8.34350967197879
      ],
      [
        "▁tuli",
        -8.346905332520326
      ],
      [
        "sa",
        -8.347092662996062
      ],
      [
        "▁mabadiliko",
        -8.348541132604334
      ],
      [
        "c",
        -8.34910709449148
      ],
      [
        "▁wangu",
        -8.3500693471831
      ],
      [
        "▁Kanuni",
        -8.352874681201971
      ],
      [
        "▁kuliko",
        -8.35295832789719
      ],
      [
        "▁Mungu",
        -8.353733557290129
      ],
      [
        "▁kunipa",
        -8.353828120882781
      ],
      [
        "▁vyama",
        -8.354666251497902
      ],
      [
        "tokea",
        -8.354897365884092
      ],
      [
        "▁kesi",
        -8.355612158818015
      ],
      [
        "▁soko",
        -8.357034711860502
      ],
      [
        "▁mipango",
        -8.357209780393692
      ],
      [
        "▁kujibu",
        -8.359715814164108
      ],
      [
        "▁binafsi",
        -8.364528933523227
      ],
      [
        "▁wanawake",
        -8.366944394852242
      ],
      [
        "▁mrefu",
        -8.36767125879806
      ],
      [
        "▁ngazi",
        -8.368419429353473
      ],
      [
        "▁maoni",
        -8.369495894365539
      ],
      [
        "▁amesema",
        -8.370403668423423
      ],
      [
        "▁Afya",
        -8.372608640683035
      ],
      [
        "pewa",
        -8.373269597345788
      ],
      [
        "▁magari",
        -8.376495907522251
      ],
      [
        "▁wako",
        -8.379074020340559
      ],
      [
        "▁lili",
        -8.381041957688911
      ],
      [
        "▁b",
        -8.381359130783746
      ],
      [
        "▁ushauri",
        -8.381546197548985
      ],
      [
        "▁ndogo",
        -8.38314364867336
      ],
      [
        "▁usalama",
        -8.383676271751916
      ],
      [
        "▁kusimamia",
        -8.386553434585782
      ],
      [
        "kwenda",
        -8.389442255618484
      ],
      [
        "z",
        -8.390331349793941
      ],
      [
        "▁Alisema",
        -8.391407123131534
      ],
      [
        "▁ulio",
        -8.391638122612132
      ],
      [
        "▁vituo",
        -8.392053937018215
      ],
      [
        "ingia",
        -8.392221512031321
      ],
      [
        "ba",
        -8.392663870364416
      ],
      [
        "▁kuchukua",
        -8.39268095574658
      ],
      [
        "▁tuka",
        -8.394084009765349
      ],
      [
        "▁mali",
        -8.3954399518469
      ],
      [
        "mu",
        -8.396574734828883
      ],
      [
        "I",
        -8.39723842135731
      ],
      [
        "▁miundombinu",
        -8.40458645043841
      ],
      [
        "▁Na.",
        -8.405619031338343
      ],
      [
        "fika",
        -8.40597627399388
      ],
      [
        "▁kutosha",
        -8.406279480872051
      ],
      [
        "▁idadi",
        -8.407301571142236
      ],
      [
        "▁tofauti",
        -8.409021761417772
      ],
      [
        "▁wala",
        -8.409817067739269
      ],
      [
        "▁yaani",
        -8.413766163116268
      ],
      [
        "▁k",
        -8.41817371092809
      ],
      [
        "▁wenyewe",
        -8.422391556867181
      ],
      [
        "▁Hii",
        -8.42450000677469
      ],
      [
        "▁Kilimo",
        -8.425670818944203
      ],
      [
        "▁uongozi",
        -8.427254692853888
      ],
      [
        "▁kuji",
        -8.428371498878084
      ],
      [
        "Mimi",
        -8.428501048737054
      ],
      [
        "▁kuimarisha",
        -8.432372706667369
      ],
      [
        "▁pesa",
        -8.433403093402823
      ],
      [
        "▁taratibu",
        -8.433573093091814
      ],
      [
        "▁kuleta",
        -8.434485810833086
      ],
      [
        "pe",
        -8.434589433996207
      ],
      [
        "toka",
        -8.436022989905284
      ],
      [
        "▁haraka",
        -8.438002532391113
      ],
      [
        "▁haja",
        -8.43805298631686
      ],
      [
        "▁mafuta",
        -8.440501816047984
      ],
      [
        "▁amani",
        -8.441602720708458
      ],
      [
        "▁Nchi",
        -8.442893144778434
      ],
      [
        "▁kime",
        -8.44766066290469
      ],
      [
        "▁ilivyo",
        -8.448643706595336
      ],
      [
        "endelea",
        -8.448892250747699
      ],
      [
        "ha",
        -8.449443515034114
      ],
      [
        "▁maalum",
        -8.450196537944043
      ],
      [
        "▁anaye",
        -8.451864126017556
      ],
      [
        "▁juhudi",
        -8.453608628171372
      ],
      [
        "▁lako",
        -8.455112358935736
      ],
      [
        "di",
        -8.456358380312539
      ],
      [
        "▁nchini.",
        -8.45892852299398
      ],
      [
        "▁Ali",
        -8.46057175857136
      ],
      [
        "▁simu",
        -8.461283813486391
      ],
      [
        "▁timu",
        -8.462329806060511
      ],
      [
        "omba",
        -8.465109564749303
      ],
      [
        "▁nili",
        -8.470442066816604
      ],
      [
        "▁imekuwa",
        -8.473886202763678
      ],
      [
        "▁kawaida",
        -8.473923078856258
      ],
      [
        "▁taasisi",
        -8.474422354130823
      ],
      [
        "▁walikuwa",
        -8.474759203440932
      ],
      [
        "pa",
        -8.47592074297008
      ],
      [
        "▁mji",
        -8.476879759579019
      ],
      [
        "7",
        -8.478421635017622
      ],
      [
        "nga",
        -8.480946694636629
      ],
      [
        "▁zita",
        -8.484618527237062
      ],
      [
        "▁c",
        -8.487427676341571
      ],
      [
        "▁Mradi",
        -8.488725835246179
      ],
      [
        "▁Ka",
        -8.492810069673975
      ],
      [
        "▁–",
        -8.494490099146066
      ],
      [
        "▁ndege",
        -8.496605497076404
      ],
      [
        "▁polisi",
        -8.497854453714446
      ],
      [
        "\"",
        -8.49790506299129
      ],
      [
        "▁Mashariki",
        -8.498893191919993
      ],
      [
        "▁Taarifa",
        -8.499645739912543
      ],
      [
        "▁hii.",
        -8.500229601225763
      ],
      [
        "▁lita",
        -8.501512425284199
      ],
      [
        "▁itakuwa",
        -8.504339920907503
      ],
      [
        "▁kuya",
        -8.505744517715108
      ],
      [
        "jua",
        -8.505925532990073
      ],
      [
        "▁ahsante",
        -8.506788199189554
      ],
      [
        "▁kifungu",
        -8.507317265101564
      ],
      [
        "▁mbaya",
        -8.510659581741827
      ],
      [
        "▁mazuri",
        -8.511215574090505
      ],
      [
        "▁Upinzani",
        -8.51209948820856
      ],
      [
        "vu",
        -8.518622009002684
      ],
      [
        "▁10",
        -8.520932988837334
      ],
      [
        "▁mahitaji",
        -8.522346261713118
      ],
      [
        "▁Kifungu",
        -8.523555647473685
      ],
      [
        "mba",
        -8.532871683291958
      ],
      [
        "▁Matumizi",
        -8.535524751573808
      ],
      [
        "▁kuendeleza",
        -8.535628319230016
      ],
      [
        "▁ushirikiano",
        -8.537665427565338
      ],
      [
        "▁kuanzisha",
        -8.54257218324244
      ],
      [
        "▁walimu",
        -8.545894953377655
      ],
      [
        "▁silaha",
        -8.547739306521366
      ],
      [
        "▁Bodi",
        -8.547999349902497
      ],
      [
        "▁wanachama",
        -8.549028889048358
      ],
      [
        "▁Tuna",
        -8.550928979794621
      ],
      [
        "▁ama",
        -8.553075076492807
      ],
      [
        "▁hawana",
        -8.553469855116674
      ],
      [
        "▁askari",
        -8.55400857677029
      ],
      [
        "▁mama",
        -8.555207211534334
      ],
      [
        "eleza",
        -8.557010644385628
      ],
      [
        "▁matokeo",
        -8.560499431964825
      ],
      [
        "▁sita",
        -8.561924897286156
      ],
      [
        "▁kinacho",
        -8.565418032006255
      ],
      [
        "▁sera",
        -8.566011890981567
      ],
      [
        "▁tuki",
        -8.566334869331145
      ],
      [
        "▁kujua",
        -8.567182556704473
      ],
      [
        "▁kampuni",
        -8.567246673888665
      ],
      [
        "▁kikubwa",
        -8.569282039724115
      ],
      [
        "se",
        -8.569373204598078
      ],
      [
        "▁mamlaka",
        -8.570857342081808
      ],
      [
        "enda",
        -8.570874566782344
      ],
      [
        "▁Kambi",
        -8.572964893827447
      ],
      [
        "▁Pamoja",
        -8.577842107506813
      ],
      [
        "▁in",
        -8.581165526348322
      ],
      [
        "▁Idara",
        -8.583280041056685
      ],
      [
        "▁C",
        -8.584759950910312
      ],
      [
        "changia",
        -8.585330256574204
      ],
      [
        "▁marekebisho",
        -8.587533219532101
      ],
      [
        "▁awali",
        -8.591453557539609
      ],
      [
        "▁kituo",
        -8.591625252692888
      ],
      [
        "▁madini",
        -8.591949727552212
      ],
      [
        "▁mia",
        -8.592165908650893
      ],
      [
        "▁ofisi",
        -8.595022644539018
      ],
      [
        "▁uka",
        -8.59733147354367
      ],
      [
        "▁hospitali",
        -8.599936701679262
      ],
      [
        "shi",
        -8.6002477736413
      ],
      [
        "▁mchango",
        -8.600404145601638
      ],
      [
        "▁yali",
        -8.604788704630176
      ],
      [
        "▁Shule",
        -8.605386214707943
      ],
      [
        "▁ifuatavyo:",
        -8.605413533618568
      ],
      [
        "▁taifa",
        -8.607703048913564
      ],
      [
        "▁rasmi",
        -8.608040491742571
      ],
      [
        "6",
        -8.611042610677583
      ],
      [
        "▁'",
        -8.613162243871747
      ],
      [
        "▁20",
        -8.614334863406242
      ],
      [
        "▁iwe",
        -8.61548124188945
      ],
      [
        "▁Jumuiya",
        -8.619082228052115
      ],
      [
        "▁lake",
        -8.620302842377162
      ],
      [
        "fikia",
        -8.62049417780676
      ],
      [
        "▁iko",
        -8.622539615244278
      ],
      [
        "▁p",
        -8.62528147056983
      ],
      [
        "▁mifugo",
        -8.626297526437261
      ],
      [
        "▁naunga",
        -8.628190400411716
      ],
      [
        "▁mafanikio",
        -8.630883018389637
      ],
      [
        "▁akasema",
        -8.631972063741346
      ],
      [
        "▁wiki",
        -8.63302943103055
      ],
      [
        "▁Mataifa",
        -8.63488289722223
      ],
      [
        "▁wewe",
        -8.635130660869557
      ],
      [
        "▁kuzingatia",
        -8.63646578492451
      ],
      [
        "mi",
        -8.637667844251377
      ],
      [
        "▁Waziri,",
        -8.638385265441624
      ],
      [
        "zidi",
        -8.638609869913749
      ],
      [
        "▁baadaye",
        -8.638622180473114
      ],
      [
        "▁Bw.",
        -8.641540136098216
      ],
      [
        "▁hilo.",
        -8.642591861606544
      ],
      [
        "kubali",
        -8.647244582013812
      ],
      [
        "▁huyu",
        -8.648317438006806
      ],
      [
        "▁thamani",
        -8.65057772587106
      ],
      [
        "nge",
        -8.653470935596992
      ],
      [
        "hi",
        -8.65388957714921
      ],
      [
        "▁mzuri",
        -8.65509541540476
      ],
      [
        "▁Kusini",
        -8.655438004664116
      ],
      [
        "4",
        -8.658269628486844
      ],
      [
        "▁wamekuwa",
        -8.658392438780705
      ],
      [
        "▁19",
        -8.659318863149172
      ],
      [
        "▁Tukufu",
        -8.659699336138605
      ],
      [
        "▁kile",
        -8.662053673890123
      ],
      [
        "▁30",
        -8.66229305178286
      ],
      [
        "▁Ardhi",
        -8.662766089694914
      ],
      [
        "▁Bungeni",
        -8.663063521557419
      ],
      [
        "▁kumi",
        -8.666778119371632
      ],
      [
        "▁Ziwa",
        -8.667416480957794
      ],
      [
        "2",
        -8.667975234073099
      ],
      [
        "▁Hospitali",
        -8.669163762344327
      ],
      [
        "▁letu",
        -8.669579160940202
      ],
      [
        "▁mikoa",
        -8.671131902078361
      ],
      [
        "▁Ujenzi",
        -8.672147174583328
      ],
      [
        "ge",
        -8.672161185280563
      ],
      [
        "▁Kazi",
        -8.672863821344132
      ],
      [
        "▁Mapinduzi",
        -8.67554483148816
      ],
      [
        "▁yako",
        -8.6755548097061
      ],
      [
        "▁hayo,",
        -8.676729936827305
      ],
      [
        "▁wawekezaji",
        -8.677981151282285
      ],
      [
        "▁to",
        -8.678434325189986
      ],
      [
        "▁wadogo",
        -8.686647281321694
      ],
      [
        "▁uwekezaji",
        -8.688022741708972
      ],
      [
        "in",
        -8.68841013017318
      ],
      [
        "▁Wakati",
        -8.688624398973014
      ],
      [
        "peleka",
        -8.690754648027426
      ],
      [
        "kuja",
        -8.690855545850585
      ],
      [
        "▁huo,",
        -8.692247301815053
      ],
      [
        "▁Sh.",
        -8.692925087651432
      ],
      [
        "▁M.",
        -8.693697035621135
      ],
      [
        "▁nita",
        -8.693868457899335
      ],
      [
        "ga",
        -8.694990797362808
      ],
      [
        "▁h",
        -8.695307508679091
      ],
      [
        "▁uamuzi",
        -8.697951608197242
      ],
      [
        "she",
        -8.699440426830728
      ],
      [
        "▁Umma",
        -8.700186219033737
      ],
      [
        "ru",
        -8.700319511540634
      ],
      [
        "▁sana,",
        -8.700852437090736
      ],
      [
        "▁wilaya",
        -8.702214316310565
      ],
      [
        "▁mwenye",
        -8.702386778702913
      ],
      [
        "▁Mambo",
        -8.702579787708563
      ],
      [
        "▁vijijini",
        -8.702693813842316
      ],
      [
        "▁husika",
        -8.704312321185022
      ],
      [
        "▁msaada",
        -8.704542728470802
      ],
      [
        "onekana",
        -8.706597438031931
      ],
      [
        "▁linalo",
        -8.706745296897127
      ],
      [
        "▁mawili",
        -8.70780218154662
      ],
      [
        "▁kuondoa",
        -8.708049447232009
      ],
      [
        "▁uhakika",
        -8.709149424943044
      ],
      [
        "▁ukweli",
        -8.710496590925029
      ],
      [
        "▁Tu",
        -8.71604573988291
      ],
      [
        "▁tani",
        -8.716591010399368
      ],
      [
        "▁maswali",
        -8.716812836294704
      ],
      [
        "▁yetu.",
        -8.720250445391423
      ],
      [
        "ye",
        -8.720719174532302
      ],
      [
        "O",
        -8.721619688162235
      ],
      [
        "▁akiwa",
        -8.722171292570044
      ],
      [
        "▁kuingia",
        -8.722193856512888
      ],
      [
        "tokana",
        -8.72285915341265
      ],
      [
        "▁pa",
        -8.725217797197333
      ],
      [
        "▁nao",
        -8.726543453499273
      ],
      [
        "▁nadhani",
        -8.72665776950192
      ],
      [
        "U",
        -8.730486588168993
      ],
      [
        "▁Kampuni",
        -8.731613489232888
      ],
      [
        "▁kutafuta",
        -8.732381112225529
      ],
      [
        "▁gari",
        -8.73349451162191
      ],
      [
        "rudi",
        -8.734793338985051
      ],
      [
        "kuw",
        -8.73612096596577
      ],
      [
        "▁vime",
        -8.736184346538305
      ],
      [
        "▁l",
        -8.738298990738553
      ],
      [
        "▁kuwepo",
        -8.738450189911365
      ],
      [
        "▁mtoto",
        -8.739286814823043
      ],
      [
        "▁raia",
        -8.73942565297901
      ],
      [
        "▁Mawaziri",
        -8.739605491794906
      ],
      [
        "▁kusaidia",
        -8.739834340631251
      ],
      [
        "hitaji",
        -8.74101553956224
      ],
      [
        "▁sh",
        -8.741705624350235
      ],
      [
        "takiwa",
        -8.744423040428698
      ],
      [
        "▁kauli",
        -8.744593228473464
      ],
      [
        "▁B",
        -8.748543884161071
      ],
      [
        "▁ipo",
        -8.748738099703276
      ],
      [
        "9",
        -8.748854938883925
      ],
      [
        "▁Ahsante",
        -8.750140727444384
      ],
      [
        "▁niaba",
        -8.750739825255833
      ],
      [
        "▁upatikanaji",
        -8.752449064198546
      ],
      [
        "▁mna",
        -8.752832483142155
      ],
      [
        "▁wataalam",
        -8.75549727229313
      ],
      [
        "pita",
        -8.756290409132491
      ],
      [
        "▁Dr.",
        -8.756651771478856
      ],
      [
        "▁lingine",
        -8.758239232820767
      ],
      [
        "zungumza",
        -8.75869929957006
      ],
      [
        "▁Dk.",
        -8.759368453262663
      ],
      [
        "▁bali",
        -8.75984066412017
      ],
      [
        "▁yao.",
        -8.759881138216217
      ],
      [
        "▁Dodoma",
        -8.761008326648712
      ],
      [
        "▁MWENYEKITI:",
        -8.76134245077932
      ],
      [
        "▁rasilimali",
        -8.76279561636453
      ],
      [
        "▁15",
        -8.765616984180312
      ],
      [
        "ed",
        -8.765637500725388
      ],
      [
        "▁ha",
        -8.767415187126113
      ],
      [
        "▁kadhaa",
        -8.768204692014564
      ],
      [
        "▁kuangalia",
        -8.769392687586874
      ],
      [
        "▁mkataba",
        -8.769591126048603
      ],
      [
        "ni,",
        -8.770611330165988
      ],
      [
        "▁nayo",
        -8.774029140606379
      ],
      [
        "▁dola",
        -8.774677506015909
      ],
      [
        "saidia",
        -8.775010401965492
      ],
      [
        "▁rais",
        -8.775955428096898
      ],
      [
        "▁Vyama",
        -8.777659728035719
      ],
      [
        "▁usimamizi",
        -8.77864188195053
      ],
      [
        "E",
        -8.780006035702803
      ],
      [
        "patikana",
        -8.780134410081592
      ],
      [
        "▁Kimataifa",
        -8.7807982568089
      ],
      [
        "▁kasi",
        -8.781701458499697
      ],
      [
        "▁nataka",
        -8.784551276152545
      ],
      [
        "▁utawala",
        -8.785281618888154
      ],
      [
        "▁O",
        -8.786451852766943
      ],
      [
        "▁kununua",
        -8.787355156723695
      ],
      [
        "▁Mkurugenzi",
        -8.788519747332835
      ],
      [
        "▁lini",
        -8.788619468836554
      ],
      [
        "▁ka",
        -8.790817024315434
      ],
      [
        "piga",
        -8.791744775304581
      ],
      [
        "▁Ujerumani",
        -8.792253789575918
      ],
      [
        "▁Kuna",
        -8.792259590870914
      ],
      [
        "▁majengo",
        -8.794244280609002
      ],
      [
        "▁Cha",
        -8.79500535134421
      ],
      [
        "▁huo.",
        -8.795808188237201
      ],
      [
        "▁kiongozi",
        -8.795992778675009
      ],
      [
        "▁Kati",
        -8.796168498135497
      ],
      [
        "▁Kituo",
        -8.796512392227303
      ],
      [
        "shindwa",
        -8.799004850071958
      ],
      [
        "▁mawasiliano",
        -8.799208969616648
      ],
      [
        "▁Baada",
        -8.799610080354817
      ],
      [
        "▁E",
        -8.801190241385878
      ],
      [
        "▁maslahi",
        -8.801759996495525
      ],
      [
        "▁umma",
        -8.802332235783748
      ],
      [
        "▁vinavyo",
        -8.802469662642721
      ],
      [
        "onyesha",
        -8.80247000614278
      ],
      [
        "pi",
        -8.802669686353553
      ],
      [
        "▁mdogo",
        -8.803460279094052
      ],
      [
        "▁hilo,",
        -8.80371382898176
      ],
      [
        "▁siasa",
        -8.803832112201759
      ],
      [
        "bi",
        -8.806226634651985
      ],
      [
        "j",
        -8.808051902179182
      ],
      [
        "▁mikakati",
        -8.808320065735671
      ],
      [
        "fanyika",
        -8.808592243862796
      ],
      [
        "▁miongoni",
        -8.81083258274454
      ],
      [
        "▁zenye",
        -8.8116517645746
      ],
      [
        "▁Si",
        -8.8139594631906
      ],
      [
        "▁halafu",
        -8.815178630233067
      ],
      [
        "▁yake.",
        -8.816446734174601
      ],
      [
        "▁G",
        -8.816979271341989
      ],
      [
        "▁jukumu",
        -8.81721923925459
      ],
      [
        "▁vyanzo",
        -8.817792659255769
      ],
      [
        "▁iweze",
        -8.821546512035006
      ],
      [
        "▁yata",
        -8.823540300035795
      ],
      [
        "8",
        -8.825495531223645
      ],
      [
        "▁Israel",
        -8.826612286257392
      ],
      [
        "▁mapendekezo",
        -8.826971449916186
      ],
      [
        "shiriki",
        -8.82920849639034
      ],
      [
        "▁masharti",
        -8.829812311593818
      ],
      [
        "R",
        -8.83023498037974
      ],
      [
        "▁familia",
        -8.83084748856771
      ],
      [
        "▁malengo",
        -8.830847679266672
      ],
      [
        "▁utendaji",
        -8.831373184877002
      ],
      [
        "▁zamani",
        -8.831549901574704
      ],
      [
        "▁faida",
        -8.832407999124955
      ],
      [
        "▁jitihada",
        -8.832672278901537
      ],
      [
        "▁Kikwete",
        -8.834996115902396
      ],
      [
        "▁wafanyabiashara",
        -8.835259567807944
      ],
      [
        "▁imani",
        -8.835305491463327
      ],
      [
        "▁hususan",
        -8.836392417191387
      ],
      [
        "zungumzia",
        -8.836780554993593
      ],
      [
        "ngo",
        -8.838117391901232
      ],
      [
        "▁t",
        -8.840273998637034
      ],
      [
        "▁kutu",
        -8.843220571958273
      ],
      [
        "▁kiuchumi",
        -8.843567481259225
      ],
      [
        "▁Ushirika",
        -8.844106786444424
      ],
      [
        "▁upungufu",
        -8.844926618769287
      ],
      [
        "▁ulinzi",
        -8.84565758380278
      ],
      [
        "▁miezi",
        -8.846523405494938
      ],
      [
        "▁mishahara",
        -8.847555935297276
      ],
      [
        "▁Kwanza",
        -8.8478865819478
      ],
      [
        "angalia",
        -8.847892988768661
      ],
      [
        "▁madai",
        -8.8479834444995
      ],
      [
        "S",
        -8.848801316038603
      ],
      [
        "e,",
        -8.849629186190944
      ],
      [
        "▁Sera",
        -8.85120043608471
      ],
      [
        "▁ikiwemo",
        -8.852308915692154
      ],
      [
        "▁tuweze",
        -8.857311607882856
      ],
      [
        "▁karibuni",
        -8.857922493787887
      ],
      [
        "▁itaendelea",
        -8.860637744092797
      ],
      [
        "▁labda",
        -8.860807758582428
      ],
      [
        "▁wawili",
        -8.861576452652976
      ],
      [
        "maliza",
        -8.861891604716261
      ],
      [
        "▁naye",
        -8.862548317952836
      ],
      [
        "▁Kikuu",
        -8.862945485311291
      ],
      [
        "▁mfano,",
        -8.864091389291707
      ],
      [
        "▁Vijiji",
        -8.864267326869063
      ],
      [
        "jenga",
        -8.864488520356314
      ],
      [
        "▁Mji",
        -8.864870955247344
      ],
      [
        "▁haija",
        -8.865237438694148
      ],
      [
        "▁Walimu",
        -8.866302622202289
      ],
      [
        "▁saba",
        -8.866906203631185
      ],
      [
        "one",
        -8.866928664817113
      ],
      [
        "▁lenye",
        -8.86887925622145
      ],
      [
        "▁1,",
        -8.868924783534293
      ],
      [
        "▁hii,",
        -8.869091102188019
      ],
      [
        "▁Iraq",
        -8.870351797262101
      ],
      [
        "▁Barabara",
        -8.870397142595772
      ],
      [
        "▁mazungumzo",
        -8.871071235503749
      ],
      [
        "▁vitendo",
        -8.871534695405524
      ],
      [
        "▁mkakati",
        -8.872092724876802
      ],
      [
        "▁wenzetu",
        -8.872883702572652
      ],
      [
        "▁kulipa",
        -8.873293741257795
      ],
      [
        "▁mkoa",
        -8.873758888899133
      ],
      [
        "▁haina",
        -8.873933947964973
      ],
      [
        "▁toka",
        -8.87485157770574
      ],
      [
        "▁mi",
        -8.875125000107621
      ],
      [
        "▁nilikuwa",
        -8.87553246955886
      ],
      [
        "▁nyuma",
        -8.876061165367814
      ],
      [
        "▁huwa",
        -8.877814860977992
      ],
      [
        "▁kanuni",
        -8.879125008875567
      ],
      [
        "▁wasi",
        -8.87982056172203
      ],
      [
        "tumika",
        -8.879847096345715
      ],
      [
        "▁Wabunge,",
        -8.881132794142678
      ],
      [
        "unga",
        -8.881420693777102
      ],
      [
        "▁vitu",
        -8.88549332910384
      ],
      [
        "▁langu",
        -8.885499087233706
      ],
      [
        "▁maneno",
        -8.886202902601445
      ],
      [
        "▁lile",
        -8.8887635502153
      ],
      [
        "▁Uchaguzi",
        -8.889491782559183
      ],
      [
        "▁halisi",
        -8.890875913714359
      ],
      [
        "▁inaweza",
        -8.891411442473807
      ],
      [
        "A",
        -8.892767577575784
      ],
      [
        "▁pekee",
        -8.892838870459938
      ],
      [
        "▁je,",
        -8.894952168730269
      ],
      [
        "▁jina",
        -8.897056846711074
      ],
      [
        "▁tano",
        -8.899138974721412
      ],
      [
        "▁kutaka",
        -8.900618323528843
      ],
      [
        "▁teknolojia",
        -8.900677909535554
      ],
      [
        "▁D",
        -8.902553948487146
      ],
      [
        "▁Biashara",
        -8.90275711690505
      ],
      [
        "▁ufanisi",
        -8.903331148353928
      ],
      [
        "▁nyongeza",
        -8.903637730045247
      ],
      [
        "▁fulani",
        -8.904097512059447
      ],
      [
        "sababisha",
        -8.90430840083221
      ],
      [
        "▁kupeleka",
        -8.904444079923676
      ],
      [
        "ing",
        -8.904650084550468
      ],
      [
        "▁utoaji",
        -8.904999588016503
      ],
      [
        "▁mashamba",
        -8.905819111426014
      ],
      [
        "▁rushwa",
        -8.906370877850826
      ],
      [
        "▁H",
        -8.907179072695795
      ],
      [
        "baki",
        -8.909237499819957
      ],
      [
        "mbo",
        -8.910211480922657
      ],
      [
        "▁Salaam,",
        -8.910522507197221
      ],
      [
        "▁waziri",
        -8.9122726286449
      ],
      [
        "▁kikao",
        -8.914212056764798
      ],
      [
        "▁ongezeko",
        -8.916486341069255
      ],
      [
        "▁ndugu",
        -8.918188875481407
      ],
      [
        "▁umaskini",
        -8.919404910476732
      ],
      [
        "kwa",
        -8.920048978814108
      ],
      [
        "▁Sekondari",
        -8.923274979494682
      ],
      [
        "▁ambako",
        -8.923619802710167
      ],
      [
        "▁kero",
        -8.92386228786765
      ],
      [
        "ishi",
        -8.924950862153704
      ],
      [
        "▁Hali",
        -8.925578333096514
      ],
      [
        "▁ahadi",
        -8.925860803992542
      ],
      [
        "▁kilicho",
        -8.92757941358369
      ],
      [
        "▁mapema",
        -8.927829457451747
      ],
      [
        "on",
        -8.928529116574817
      ],
      [
        "cho",
        -8.928667525288002
      ],
      [
        "▁ubora",
        -8.928973284622
      ],
      [
        "▁maamuzi",
        -8.929913398153937
      ],
      [
        "▁50",
        -8.929962494169986
      ],
      [
        "▁Mb",
        -8.9316195455405
      ],
      [
        "▁wajibu",
        -8.931895705120983
      ],
      [
        "▁J.",
        -8.934119571368743
      ],
      [
        "▁nne",
        -8.934718131153407
      ],
      [
        "▁kisheria",
        -8.936515503005705
      ],
      [
        "▁kudhibiti",
        -8.938481372969742
      ],
      [
        "amini",
        -8.938494495803054
      ],
      [
        "▁tukio",
        -8.939250259876715
      ],
      [
        "▁kisiasa",
        -8.941429117241883
      ],
      [
        "▁vyuo",
        -8.941740732571835
      ],
      [
        "▁Vyuo",
        -8.941905499754196
      ],
      [
        "▁pengine",
        -8.942212778832273
      ],
      [
        "ngu",
        -8.942714933220746
      ],
      [
        "▁vyote",
        -8.94340642563939
      ],
      [
        "N",
        -8.945313015215897
      ],
      [
        "▁wapo",
        -8.945746349061858
      ],
      [
        "▁uchunguzi",
        -8.946407532120796
      ],
      [
        "▁wafugaji",
        -8.946844600412449
      ],
      [
        "▁wakiwa",
        -8.94701631606873
      ],
      [
        "tolewa",
        -8.950197914739167
      ],
      [
        "▁kutengeneza",
        -8.951309679617742
      ],
      [
        "shauri",
        -8.951482502174994
      ],
      [
        "▁kili",
        -8.952460135834144
      ],
      [
        "▁sifa",
        -8.953732367620173
      ],
      [
        "sikia",
        -8.954895218375786
      ],
      [
        "▁kuandaa",
        -8.954909831946653
      ],
      [
        "▁sahihi",
        -8.954960474546324
      ],
      [
        "jaribu",
        -8.955506683264394
      ],
      [
        "▁viwanja",
        -8.955596636399134
      ],
      [
        "▁wakazi",
        -8.9559567253741
      ],
      [
        "▁mingi",
        -8.957849841689965
      ],
      [
        "▁vilivyo",
        -8.958248216330823
      ],
      [
        "▁watendaji",
        -8.959718744207603
      ],
      [
        "▁P",
        -8.962822123928243
      ],
      [
        "▁Hivi",
        -8.963031724254916
      ],
      [
        "▁huu.",
        -8.967853084143016
      ],
      [
        "soma",
        -8.968005257942137
      ],
      [
        "da",
        -8.968089495867384
      ],
      [
        "▁Viongozi",
        -8.96869561742924
      ],
      [
        "▁tu.",
        -8.97062539986156
      ],
      [
        "▁nakushukuru",
        -8.970843020553382
      ],
      [
        "▁mchakato",
        -8.971561223979945
      ],
      [
        "▁michezo",
        -8.972789867472892
      ],
      [
        "jibu",
        -8.973022744237605
      ],
      [
        "▁uhuru",
        -8.973651815555636
      ],
      [
        "▁upya",
        -8.974303134567103
      ],
      [
        "ani",
        -8.975063239347886
      ],
      [
        "gi",
        -8.975559182957848
      ],
      [
        "▁haku",
        -8.97577779284052
      ],
      [
        "▁usafiri",
        -8.976170842800899
      ],
      [
        "▁migogoro",
        -8.977239667479761
      ],
      [
        "▁kundi",
        -8.977427255099345
      ],
      [
        "▁Bara",
        -8.977632514792475
      ],
      [
        "3",
        -8.978714396045952
      ],
      [
        "▁2",
        -8.978964273851911
      ],
      [
        "jitokeza",
        -8.980302842076076
      ],
      [
        "▁nzima",
        -8.980769591292724
      ],
      [
        "▁Kenya",
        -8.980966566698172
      ],
      [
        "▁mkoani",
        -8.981664411819189
      ],
      [
        "▁Makamu",
        -8.982429034420655
      ],
      [
        "▁hatu",
        -8.982444547962931
      ],
      [
        "kata",
        -8.98255565686556
      ],
      [
        "▁kuzalisha",
        -8.983696861924722
      ],
      [
        "v",
        -8.985159935191227
      ],
      [
        "▁viwango",
        -8.985668050093619
      ],
      [
        "▁namba",
        -8.98677975215778
      ],
      [
        "hu",
        -8.987079341495917
      ],
      [
        "▁Tanzania.",
        -8.988035901601757
      ],
      [
        "▁kup",
        -8.988253348556375
      ],
      [
        "▁jijini",
        -8.988500344343098
      ],
      [
        "baina",
        -8.9892554629241
      ],
      [
        "▁Mwenyezi",
        -8.990573976855671
      ],
      [
        "▁(c)",
        -8.990603547889574
      ],
      [
        "▁hoja.",
        -8.991399597024357
      ],
      [
        "elewa",
        -8.991641647225151
      ],
      [
        "D",
        -8.995718710621295
      ],
      [
        "▁malipo",
        -8.996113153599065
      ],
      [
        "▁Usalama",
        -8.996913497654887
      ],
      [
        "▁wabunge",
        -8.99753177567746
      ],
      [
        "▁Mu",
        -8.997927284581754
      ],
      [
        "▁3",
        -8.998953969958915
      ],
      [
        "▁mwenyewe",
        -8.999366844596535
      ],
      [
        "kuwepo",
        -8.999381452032996
      ],
      [
        "▁Pili",
        -8.999932863012557
      ],
      [
        "amua",
        -9.00090452012011
      ],
      [
        "▁bahati",
        -9.001362939041458
      ],
      [
        "▁kuja",
        -9.001916666386483
      ],
      [
        "▁kupambana",
        -9.002209550004249
      ],
      [
        "T",
        -9.004048281561465
      ],
      [
        "▁alipo",
        -9.006207856559131
      ],
      [
        "▁John",
        -9.00674308824004
      ],
      [
        "▁awamu",
        -9.007361551917386
      ],
      [
        "▁ZA",
        -9.007763889647826
      ],
      [
        "▁niseme",
        -9.00797163154904
      ],
      [
        "▁vingine",
        -9.00892202707565
      ],
      [
        "▁wenzangu",
        -9.00955786361448
      ],
      [
        "▁kimataifa",
        -9.013188450949029
      ],
      [
        "▁Mitaa",
        -9.013814771468942
      ],
      [
        "▁Ili",
        -9.014014290302626
      ],
      [
        "▁Tanzania,",
        -9.014227453541393
      ],
      [
        "▁waya",
        -9.01511488859975
      ],
      [
        "▁ziki",
        -9.01554147995744
      ],
      [
        "▁ujumla",
        -9.016468170448622
      ],
      [
        "▁wanaweza",
        -9.01834606837834
      ],
      [
        "▁nashukuru",
        -9.018726766394012
      ],
      [
        "ongeza",
        -9.018921006958228
      ],
      [
        "▁dunia",
        -9.019364573736745
      ],
      [
        "▁hifadhi",
        -9.0198780755691
      ],
      [
        "▁zaidi.",
        -9.020233483228791
      ],
      [
        "▁12",
        -9.020794838910636
      ],
      [
        "▁chake",
        -9.021864175308234
      ],
      [
        "▁Mkuu,",
        -9.022266015135058
      ],
      [
        "▁Vijijini",
        -9.02259346192848
      ],
      [
        "de",
        -9.023977582190303
      ],
      [
        "▁kumpongeza",
        -9.024530434671783
      ],
      [
        "▁ningependa",
        -9.024685551224064
      ],
      [
        "▁Kijiji",
        -9.02481172348659
      ],
      [
        "nda",
        -9.024976785058698
      ],
      [
        "▁Watu",
        -9.025921322716412
      ],
      [
        "▁umri",
        -9.026154062905524
      ],
      [
        "lipa",
        -9.02627999519592
      ],
      [
        "▁Ulaya",
        -9.027425802349144
      ],
      [
        "er",
        -9.02789585461684
      ],
      [
        "▁mahakama",
        -9.028511506046003
      ],
      [
        "▁Mi",
        -9.029387434543402
      ],
      [
        "pokea",
        -9.029776086151204
      ],
      [
        "▁dhamana",
        -9.030803998698763
      ],
      [
        "bu",
        -9.030811903048258
      ],
      [
        "▁18",
        -9.031088758969258
      ],
      [
        "▁lililo",
        -9.031799253964977
      ],
      [
        "fi",
        -9.032673773189972
      ],
      [
        "▁wanapo",
        -9.033982083348173
      ],
      [
        "▁takwimu",
        -9.034171364092684
      ],
      [
        "isha",
        -9.035136180163164
      ],
      [
        "▁ukarabati",
        -9.035571153186918
      ],
      [
        "zingatia",
        -9.036084531559656
      ],
      [
        "▁ugonjwa",
        -9.036829320405207
      ],
      [
        "▁kijiji",
        -9.037484691656866
      ],
      [
        "C",
        -9.038080405858326
      ],
      [
        "▁gesi",
        -9.041624987797777
      ],
      [
        "▁40",
        -9.041816772967426
      ],
      [
        "▁16",
        -9.041903903183252
      ],
      [
        "▁hayo.",
        -9.042189241446994
      ],
      [
        "▁mvua",
        -9.04405352339966
      ],
      [
        "▁ziara",
        -9.044289546497902
      ],
      [
        "▁waandishi",
        -9.044904905913205
      ],
      [
        "▁wanasema",
        -9.046508871325228
      ],
      [
        "▁malalamiko",
        -9.049953775637045
      ],
      [
        "▁tu,",
        -9.05221441905035
      ],
      [
        "▁dhati",
        -9.052605322519412
      ],
      [
        "▁jeshi",
        -9.053324718822807
      ],
      [
        "▁wake.",
        -9.054928931670682
      ],
      [
        "dai",
        -9.055850680285404
      ],
      [
        "▁angalau",
        -9.056097166604497
      ],
      [
        "▁mb",
        -9.057678495225366
      ],
      [
        "▁Wakuu",
        -9.0593489448604
      ],
      [
        "▁25",
        -9.060318904284898
      ],
      [
        "▁Lu",
        -9.062411253297066
      ],
      [
        "fuata",
        -9.062871380440972
      ],
      [
        "▁17",
        -9.062942239124068
      ],
      [
        "▁wake,",
        -9.063503390750542
      ],
      [
        "▁Mkataba",
        -9.06521910416013
      ],
      [
        "▁La",
        -9.06591293597442
      ],
      [
        "▁5",
        -9.066057415374956
      ],
      [
        "▁kazi.",
        -9.066544568466307
      ],
      [
        "tangaza",
        -9.06708174857281
      ],
      [
        "▁asubuhi",
        -9.06742397447967
      ],
      [
        "▁juzi",
        -9.06743803113533
      ],
      [
        "▁Mbeya",
        -9.068116831458129
      ],
      [
        "▁miwili",
        -9.068849498410614
      ],
      [
        "▁hatari",
        -9.068976481271651
      ],
      [
        "▁F",
        -9.069144128141035
      ],
      [
        "fanyiwa",
        -9.069369587488795
      ],
      [
        "▁uwezekano",
        -9.07080287909088
      ],
      [
        "▁Aidha",
        -9.070883975326105
      ],
      [
        "5",
        -9.071614437710888
      ],
      [
        "▁Hivyo",
        -9.07290684392608
      ],
      [
        "▁wajumbe",
        -9.07358490489614
      ],
      [
        "▁pili,",
        -9.07362349427175
      ],
      [
        "▁Mw",
        -9.073802892682473
      ],
      [
        "▁Mkutano",
        -9.074025255913062
      ],
      [
        "▁zoezi",
        -9.076078532520238
      ],
      [
        "▁vingi",
        -9.076573435515632
      ],
      [
        "▁Singida",
        -9.078316945006105
      ],
      [
        "▁duniani",
        -9.080799148893218
      ],
      [
        "▁nyongeza.",
        -9.081372851207137
      ],
      [
        "▁yule",
        -9.08243697521349
      ],
      [
        "▁kuwa,",
        -9.082764965362946
      ],
      [
        "▁kita",
        -9.083125042294595
      ],
      [
        "penda",
        -9.08708998318622
      ],
      [
        "▁Vi",
        -9.08735160293054
      ],
      [
        "▁kuendesha",
        -9.08745081991212
      ],
      [
        "▁masoko",
        -9.08806796504124
      ],
      [
        "fahamu",
        -9.090031463801743
      ],
      [
        "▁Mwalimu",
        -9.091101629583914
      ],
      [
        "▁di",
        -9.091185821535198
      ],
      [
        "▁zangu",
        -9.0921226006275
      ],
      [
        "▁mbegu",
        -9.092760044383692
      ],
      [
        "▁jengo",
        -9.093151750521995
      ],
      [
        "▁Maalum",
        -9.09431247264223
      ],
      [
        "▁niki",
        -9.094320448536056
      ],
      [
        "▁for",
        -9.09435763213013
      ],
      [
        "▁kushiriki",
        -9.095383842678263
      ],
      [
        "OFISI",
        -9.095454623857512
      ],
      [
        "P",
        -9.095467021512995
      ],
      [
        "go",
        -9.0969672610854
      ],
      [
        "▁Miradi",
        -9.09718267774073
      ],
      [
        "ni.",
        -9.097477987250947
      ],
      [
        "▁sijui",
        -9.098670542604534
      ],
      [
        "▁kulingana",
        -9.100294652052506
      ],
      [
        "▁wageni",
        -9.100853144901038
      ],
      [
        "▁itakayo",
        -9.101395441728902
      ],
      [
        "pelekwa",
        -9.101865393864047
      ],
      [
        "▁Madini",
        -9.10321889966242
      ],
      [
        "▁kupewa",
        -9.103592580435173
      ],
      [
        "▁Arusha",
        -9.103730768087136
      ],
      [
        "▁makundi",
        -9.104300310752
      ],
      [
        "ongoza",
        -9.105152040500558
      ],
      [
        "sh",
        -9.10526505452196
      ],
      [
        "▁mikataba",
        -9.105284257379193
      ],
      [
        "L",
        -9.10626320423492
      ],
      [
        "▁leseni",
        -9.10835490004684
      ],
      [
        "▁hatimaye",
        -9.10838782708899
      ],
      [
        "▁Mtwara",
        -9.108590657271575
      ],
      [
        "▁vilevile",
        -9.110408608960114
      ],
      [
        "▁nyumbani",
        -9.11088367273717
      ],
      [
        "▁hili.",
        -9.11140326215526
      ],
      [
        "tekeleza",
        -9.111561090258547
      ],
      [
        "▁kuuza",
        -9.112156427150694
      ],
      [
        "▁makini",
        -9.112215016863187
      ],
      [
        "▁kushindwa",
        -9.112726406410724
      ],
      [
        "▁inaendelea",
        -9.113087912297324
      ],
      [
        "▁kisasa",
        -9.11331404291565
      ],
      [
        "▁kuhusiana",
        -9.114284858763284
      ],
      [
        "▁Mara",
        -9.114558366992371
      ],
      [
        "▁vyema",
        -9.115901039123804
      ],
      [
        "▁shirika",
        -9.116116277510557
      ],
      [
        "▁kulinda",
        -9.11901240714844
      ],
      [
        "▁yeyote",
        -9.119349631782914
      ],
      [
        "▁mitatu",
        -9.11937911194364
      ],
      [
        "▁Manispaa",
        -9.119695171109472
      ],
      [
        "▁Viwanda",
        -9.120748051526874
      ],
      [
        "▁Sa",
        -9.12129362795538
      ],
      [
        "tia",
        -9.121837809530147
      ],
      [
        "Awamu",
        -9.123606937335875
      ],
      [
        "▁miti",
        -9.123780251486547
      ],
      [
        "▁Kigoma",
        -9.124644206594128
      ],
      [
        "▁ajali",
        -9.125050296195244
      ],
      [
        "uliza",
        -9.125671660824676
      ],
      [
        "kutana",
        -9.126901173155677
      ],
      [
        "▁Li",
        -9.127100263100054
      ],
      [
        "▁huu,",
        -9.127250295053331
      ],
      [
        "jengwa",
        -9.128717500095146
      ],
      [
        "▁chombo",
        -9.12907362884285
      ],
      [
        "anzisha",
        -9.129828193152132
      ],
      [
        "▁mbolea",
        -9.13081790052682
      ],
      [
        "▁kukabiliana",
        -9.13161600943726
      ],
      [
        "▁Maafisa",
        -9.132234832028418
      ],
      [
        "tegemea",
        -9.132404256399166
      ],
      [
        "▁anaweza",
        -9.133070706203169
      ],
      [
        "▁Kutokana",
        -9.133505259451097
      ],
      [
        "▁Kanda",
        -9.136721262649958
      ],
      [
        "▁100",
        -9.137104735938747
      ],
      [
        "▁ufafanuzi",
        -9.137478066371845
      ],
      [
        "▁moto",
        -9.138487104872548
      ],
      [
        "▁safari",
        -9.13853409588572
      ],
      [
        "▁mauaji",
        -9.139414722336037
      ],
      [
        "▁ruzuku",
        -9.139591115524254
      ],
      [
        "▁wagonjwa",
        -9.13985993001416
      ],
      [
        "▁Mashirika",
        -9.13997122611854
      ],
      [
        "▁aliyekuwa",
        -9.14145521760176
      ],
      [
        "simamia",
        -9.141607962234168
      ],
      [
        "▁Utumishi",
        -9.14246853623077
      ],
      [
        "▁Bwana",
        -9.14597411619245
      ],
      [
        "▁kigeni",
        -9.14709786848726
      ],
      [
        "▁wapi",
        -9.14726024438955
      ],
      [
        "▁Mjini",
        -9.148143450364111
      ],
      [
        "▁4",
        -9.148535825790695
      ],
      [
        "ruhusu",
        -9.148871178067306
      ],
      [
        "KALA",
        -9.149719558150714
      ],
      [
        "▁barua",
        -9.149868920593942
      ],
      [
        "be",
        -9.150897525712873
      ],
      [
        "▁2004",
        -9.151361385005169
      ],
      [
        "▁unaweza",
        -9.151512905571623
      ],
      [
        "▁hazi",
        -9.152778218256367
      ],
      [
        "▁maombi",
        -9.15342945374589
      ],
      [
        "th",
        -9.156060324506544
      ],
      [
        ".\"",
        -9.157541595056577
      ],
      [
        "lipwa",
        -9.157606883961458
      ],
      [
        "H",
        -9.157663210773404
      ],
      [
        "▁aliuliza:",
        -9.158780153793854
      ],
      [
        "▁lugha",
        -9.158812500499511
      ],
      [
        "ongezeka",
        -9.15983698149967
      ],
      [
        "▁alijibu:",
        -9.161365159612036
      ],
      [
        "▁moja.",
        -9.1615484915107
      ],
      [
        "▁Makuu",
        -9.161696065403566
      ],
      [
        "▁kinyume",
        -9.161704220541312
      ],
      [
        "endesha",
        -9.161852983845836
      ],
      [
        "▁kuwapa",
        -9.161941846039143
      ],
      [
        "▁hizo.",
        -9.162468180457193
      ],
      [
        "▁uendeshaji",
        -9.163505859213185
      ],
      [
        "▁mataifa",
        -9.163863006782371
      ],
      [
        "▁ripoti",
        -9.164123836655158
      ],
      [
        "▁benki",
        -9.1660263201693
      ],
      [
        "▁(M",
        -9.166435994474115
      ],
      [
        "paswa",
        -9.166456952503816
      ],
      [
        "▁kukuza",
        -9.167559935383562
      ],
      [
        "▁kuki",
        -9.167744067391748
      ],
      [
        "husika",
        -9.1698442668187
      ],
      [
        "▁kata",
        -9.170506116835496
      ],
      [
        "▁binadamu",
        -9.170945734789443
      ],
      [
        "▁kutumika",
        -9.171064028256092
      ],
      [
        "onesha",
        -9.172049453557516
      ],
      [
        "pu",
        -9.172774301510229
      ],
      [
        "or",
        -9.172915458335154
      ],
      [
        "mbi",
        -9.173229780037932
      ],
      [
        "nd",
        -9.173593114858829
      ],
      [
        "▁(T",
        -9.17407881775495
      ],
      [
        "▁tusi",
        -9.17485399808946
      ],
      [
        "K",
        -9.175824016559886
      ],
      [
        "▁mtandao",
        -9.176856480524595
      ],
      [
        "▁Nina",
        -9.177304989591695
      ],
      [
        "▁Wakala",
        -9.177407847629103
      ],
      [
        "▁Jamii",
        -9.178913643519198
      ],
      [
        "▁samaki",
        -9.179144359401713
      ],
      [
        "▁makazi",
        -9.179474888948988
      ],
      [
        "bo",
        -9.179976449947764
      ],
      [
        "▁Vile",
        -9.181235314325448
      ],
      [
        "▁moyo",
        -9.1813626342577
      ],
      [
        "kwisha",
        -9.182306627699791
      ],
      [
        "wasilisha",
        -9.182902251118591
      ],
      [
        "wezesha",
        -9.183085790759382
      ],
      [
        "▁uvuvi",
        -9.18358422753452
      ],
      [
        "▁kiwanda",
        -9.184361192567742
      ],
      [
        "ita",
        -9.185664649600508
      ],
      [
        "▁Ndugu",
        -9.186166194715115
      ],
      [
        "ndo",
        -9.18632688728993
      ],
      [
        "du",
        -9.186507887101138
      ],
      [
        "▁tathmini",
        -9.186945332289568
      ],
      [
        "▁21",
        -9.18701304434604
      ],
      [
        "▁madaraka",
        -9.187245064348524
      ],
      [
        "▁Ibara",
        -9.188027599760227
      ],
      [
        "▁Mwanza",
        -9.188443893417126
      ],
      [
        "▁upinzani",
        -9.189468304381856
      ],
      [
        "aji",
        -9.190821478319776
      ],
      [
        "▁kuwasaidia",
        -9.19150951113192
      ],
      [
        "▁Mazingira",
        -9.192105598580737
      ],
      [
        "st",
        -9.192373363273196
      ],
      [
        "▁hakika",
        -9.192427105349548
      ],
      [
        "▁Hadi",
        -9.193364823833209
      ],
      [
        "sho",
        -9.193727483980515
      ],
      [
        "▁mbinu",
        -9.193802932473794
      ],
      [
        "▁Tabora",
        -9.194751298784636
      ],
      [
        "▁mingine",
        -9.19516887448551
      ],
      [
        "kubaliana",
        -9.195720467971928
      ],
      [
        "▁licha",
        -9.195872306034268
      ],
      [
        "1",
        -9.196279888645597
      ],
      [
        "▁kufanyika",
        -9.19638444323382
      ],
      [
        "▁mgogoro",
        -9.19765208199298
      ],
      [
        "▁tunaweza",
        -9.197710978306924
      ],
      [
        "▁yake,",
        -9.19788186987586
      ],
      [
        "▁kesho",
        -9.1980405881726
      ],
      [
        "▁kamati",
        -9.19917113733909
      ],
      [
        "▁mu",
        -9.199337782072458
      ],
      [
        "panga",
        -9.199567103942767
      ],
      [
        "▁mfupi",
        -9.20027130974688
      ],
      [
        "▁makosa",
        -9.202215919419189
      ],
      [
        "▁Juma",
        -9.202462561050073
      ],
      [
        "▁Hifadhi",
        -9.20252577627216
      ],
      [
        "▁masomo",
        -9.203652644457414
      ],
      [
        "▁Mto",
        -9.20562254354548
      ],
      [
        "▁Wana",
        -9.20670707518012
      ],
      [
        "F",
        -9.206726927228877
      ],
      [
        "▁Jiji",
        -9.20844055993464
      ],
      [
        "▁heshima",
        -9.209320329920496
      ],
      [
        "▁Ulinzi",
        -9.209392923895027
      ],
      [
        "mw",
        -9.210151098851744
      ],
      [
        "fanywa",
        -9.210630702517356
      ],
      [
        "▁kipaumbele",
        -9.210815076079
      ],
      [
        "▁11",
        -9.211054548674303
      ],
      [
        "▁hati",
        -9.211682910412968
      ],
      [
        "▁utalii",
        -9.211854217340743
      ],
      [
        "▁Anasema",
        -9.212266318578488
      ],
      [
        "WA",
        -9.212665386605618
      ],
      [
        "▁fidia",
        -9.21279206137508
      ],
      [
        "▁2005",
        -9.212839252139888
      ],
      [
        "▁chanzo",
        -9.21308813839005
      ],
      [
        "▁jirani",
        -9.213138439421927
      ],
      [
        "▁ukaguzi",
        -9.213511880166651
      ],
      [
        "▁maandalizi",
        -9.214607986662635
      ],
      [
        "▁ulikuwa",
        -9.214785326349862
      ],
      [
        "▁A.",
        -9.215001497994496
      ],
      [
        "▁kuzuia",
        -9.215760117736504
      ],
      [
        "▁tabia",
        -9.21611543572941
      ],
      [
        "▁waliokuwa",
        -9.217034934250927
      ],
      [
        "▁mitano",
        -9.217181416218777
      ],
      [
        "▁matumaini",
        -9.217386970447464
      ],
      [
        "▁gazeti",
        -9.21765270794618
      ],
      [
        "▁mfuko",
        -9.218019308764752
      ],
      [
        "▁kukamilisha",
        -9.21810899066162
      ],
      [
        "▁po",
        -9.218322872026556
      ],
      [
        "▁chochote",
        -9.21841534007412
      ],
      [
        "▁misaada",
        -9.218419500224975
      ],
      [
        "ngi",
        -9.218487164158129
      ],
      [
        "▁mw",
        -9.218720766146507
      ],
      [
        "▁asili",
        -9.21873860278622
      ],
      [
        "▁kukosa",
        -9.218740512014872
      ],
      [
        "▁humu",
        -9.219067461706468
      ],
      [
        "▁Wajumbe",
        -9.219218541258378
      ],
      [
        "▁kupiga",
        -9.220132888842697
      ],
      [
        "▁R",
        -9.22204330409225
      ],
      [
        "▁zao.",
        -9.223348818165128
      ],
      [
        "▁kuishi",
        -9.22529858238216
      ],
      [
        "▁wasio",
        -9.227024758417071
      ],
      [
        "▁mzima",
        -9.227466495237689
      ],
      [
        "▁Mohamed",
        -9.227612589545798
      ],
      [
        "▁Nishati",
        -9.228383881923692
      ],
      [
        "▁14",
        -9.2292483113762
      ],
      [
        "▁Makao",
        -9.22929218740649
      ],
      [
        "%",
        -9.22961276777798
      ],
      [
        "▁Habari",
        -9.23049308610122
      ],
      [
        "▁L",
        -9.231346596666636
      ],
      [
        "▁makampuni",
        -9.232245672371953
      ],
      [
        "▁amb",
        -9.236114765062602
      ],
      [
        "▁wowote",
        -9.236628930451452
      ],
      [
        "▁UKIMWI",
        -9.237073702849989
      ],
      [
        "▁maji.",
        -9.237223682659074
      ],
      [
        "▁yenyewe",
        -9.2384903717243
      ],
      [
        "▁pamba",
        -9.240245569003983
      ],
      [
        "▁Napenda",
        -9.240683690678877
      ],
      [
        "▁usiku",
        -9.244920608855011
      ],
      [
        "▁wingi",
        -9.246964232179192
      ],
      [
        "shwa",
        -9.247072275041935
      ],
      [
        "▁kali",
        -9.247983791768142
      ],
      [
        "▁nchini,",
        -9.249102563490062
      ],
      [
        "▁1",
        -9.249601409562509
      ],
      [
        "▁ndipo",
        -9.249809014928235
      ],
      [
        "▁peke",
        -9.251383866130446
      ],
      [
        "▁CHADEMA",
        -9.252626680998995
      ],
      [
        "▁upo",
        -9.25270483131234
      ],
      [
        "▁zilizopo",
        -9.25279934961676
      ],
      [
        "▁Huduma",
        -9.25296167428345
      ],
      [
        "vyo",
        -9.25298810968841
      ],
      [
        "▁hawaja",
        -9.253585347014033
      ],
      [
        "B",
        -9.254887934696818
      ],
      [
        "W",
        -9.2553195711488
      ],
      [
        "▁zipo",
        -9.25698681726115
      ],
      [
        "Y",
        -9.25704832255971
      ],
      [
        "▁Rais,",
        -9.257946481988856
      ],
      [
        "▁kuvi",
        -9.259425220747149
      ],
      [
        "▁kwake",
        -9.259502749446158
      ],
      [
        "▁wachache",
        -9.2596970109763
      ],
      [
        "tajwa",
        -9.259723541524297
      ],
      [
        "▁kusababisha",
        -9.260289367311398
      ],
      [
        "▁sekondari",
        -9.261483637873464
      ],
      [
        "▁wanafanya",
        -9.261506753681036
      ],
      [
        "ondoka",
        -9.26202662087432
      ],
      [
        "▁kuomba",
        -9.263214080101534
      ],
      [
        "ndi",
        -9.264282528205626
      ],
      [
        "chu",
        -9.26589427390924
      ],
      [
        "▁kadhalika.",
        -9.266084273384832
      ],
      [
        "▁kufuatilia",
        -9.266149569277506
      ],
      [
        "chi",
        -9.266243397930412
      ],
      [
        "▁Morogoro",
        -9.26701669983466
      ],
      [
        "▁kuuliza",
        -9.267072779454852
      ],
      [
        "lenga",
        -9.268062908563175
      ],
      [
        "▁kijeshi",
        -9.269720757472747
      ],
      [
        "▁watakao",
        -9.270445665888976
      ],
      [
        "▁makubaliano",
        -9.272090657172123
      ],
      [
        "es",
        -9.272430707430187
      ],
      [
        "andika",
        -9.273796084228405
      ],
      [
        "▁madeni",
        -9.275721397497623
      ],
      [
        "nunua",
        -9.27637497450634
      ],
      [
        "▁Mipango",
        -9.276499458630894
      ],
      [
        "▁miji",
        -9.277571239606434
      ],
      [
        "▁kukusanya",
        -9.280101233137996
      ],
      [
        "▁iwapo",
        -9.280217056500016
      ],
      [
        "▁vipi",
        -9.280240204412802
      ],
      [
        "ry",
        -9.280919049263112
      ],
      [
        "▁isi",
        -9.281196293245989
      ],
      [
        "wekwa",
        -9.28125604535262
      ],
      [
        "▁Dkt.",
        -9.281788157941332
      ],
      [
        "▁tija",
        -9.282924655821155
      ],
      [
        "▁hizo,",
        -9.282983727838165
      ],
      [
        "▁jimbo",
        -9.283997258134963
      ],
      [
        "▁ng'ombe",
        -9.284040171328227
      ],
      [
        "▁kutambua",
        -9.284290141594944
      ],
      [
        "▁hatuna",
        -9.284553446986209
      ],
      [
        "▁Ba",
        -9.28457462610447
      ],
      [
        "▁nafikiri",
        -9.284886652919226
      ],
      [
        "▁vili",
        -9.28542774640502
      ],
      [
        "▁vikundi",
        -9.285487049661466
      ],
      [
        "he",
        -9.285555578926548
      ],
      [
        "▁Machi",
        -9.285893635263928
      ],
      [
        "▁Vijana",
        -9.286384281573731
      ],
      [
        "tion",
        -9.287919313074111
      ],
      [
        "▁inavyo",
        -9.288395911860654
      ],
      [
        "▁ifuatavyo:-",
        -9.288704623519012
      ],
      [
        "▁ushahidi",
        -9.288751388250985
      ],
      [
        "▁Msingi",
        -9.289984357197728
      ],
      [
        "▁Mapato",
        -9.290369766157006
      ],
      [
        "▁dini",
        -9.292765645399882
      ],
      [
        "wahi",
        -9.292846196804732
      ],
      [
        "▁Mifugo",
        -9.294442539623146
      ],
      [
        "▁ndiye",
        -9.295303475143092
      ],
      [
        "▁2003",
        -9.295838177107928
      ],
      [
        "▁13",
        -9.296050362128256
      ],
      [
        "▁Se",
        -9.296488449712292
      ],
      [
        "▁Kamanda",
        -9.29772072394919
      ],
      [
        "▁mashirika",
        -9.297817170081023
      ],
      [
        "▁magonjwa",
        -9.297858501041912
      ],
      [
        "▁imeendelea",
        -9.298078202957113
      ],
      [
        "▁Askari",
        -9.299021726020236
      ],
      [
        "tambua",
        -9.302242046999456
      ],
      [
        "▁Utawala",
        -9.302628760801683
      ],
      [
        "▁kuwezesha",
        -9.304350026155134
      ],
      [
        "gu",
        -9.304541902491447
      ],
      [
        "▁Fungu",
        -9.305799625303756
      ],
      [
        "▁mipaka",
        -9.306074510585375
      ],
      [
        "▁24",
        -9.306582567976973
      ],
      [
        "▁Uingereza",
        -9.30680382725764
      ],
      [
        "fanikiwa",
        -9.30755285952403
      ],
      [
        "zaya",
        -9.307929310780228
      ],
      [
        "ahidi",
        -9.308045390501425
      ],
      [
        "so",
        -9.30871310288542
      ],
      [
        "▁kosa",
        -9.30899518102151
      ],
      [
        "x",
        -9.309150307407588
      ],
      [
        "▁umoja",
        -9.309829189991271
      ],
      [
        "▁Tatu",
        -9.312859582023057
      ],
      [
        "julikana",
        -9.3134639430833
      ],
      [
        "▁iliyopo",
        -9.314838859399355
      ],
      [
        "▁Kitaifa",
        -9.315699459529329
      ],
      [
        "▁Profesa",
        -9.316112499844298
      ],
      [
        "▁Mhe.",
        -9.316154381596968
      ],
      [
        "...",
        -9.316954037421526
      ],
      [
        "▁manufaa",
        -9.316954075117646
      ],
      [
        "▁mchezo",
        -9.317375330621754
      ],
      [
        "▁zima",
        -9.317482373600864
      ],
      [
        "chukuliwa",
        -9.317572780058065
      ],
      [
        "▁kimoja",
        -9.31786122159446
      ],
      [
        "▁60",
        -9.317987955165671
      ],
      [
        "▁22",
        -9.320299113232068
      ],
      [
        "▁wanapata",
        -9.32107004842124
      ],
      [
        "▁tunayo",
        -9.321736724876118
      ],
      [
        "us",
        -9.322712519971397
      ],
      [
        "anzishwa",
        -9.32273444784768
      ],
      [
        "ve",
        -9.322747654501292
      ],
      [
        "el",
        -9.322875067654603
      ],
      [
        "ck",
        -9.323566611630064
      ],
      [
        "▁matukio",
        -9.324136229513249
      ],
      [
        "wapa",
        -9.32462774236778
      ],
      [
        "▁mbalimbali.",
        -9.325102971925192
      ],
      [
        "▁Hili",
        -9.325356542176571
      ],
      [
        "taja",
        -9.326116797003117
      ],
      [
        "simama",
        -9.326170811881902
      ],
      [
        "▁wazazi",
        -9.327215284826629
      ],
      [
        "▁kampeni",
        -9.32795958729894
      ],
      [
        "▁nika",
        -9.32938387093016
      ],
      [
        "▁KWA",
        -9.329966463328695
      ],
      [
        "▁ziko",
        -9.330724796311
      ],
      [
        "▁watatu",
        -9.331121487599509
      ],
      [
        "▁vema",
        -9.332660550289049
      ],
      [
        "▁nishati",
        -9.334812319221983
      ],
      [
        "▁umwagiliaji",
        -9.334853735550857
      ],
      [
        "lia",
        -9.336688600906944
      ],
      [
        "▁V",
        -9.338264306655866
      ],
      [
        "▁daraja",
        -9.338657112089528
      ],
      [
        "▁mno",
        -9.339365656528036
      ],
      [
        "▁6",
        -9.3400026637496
      ],
      [
        "▁rahisi",
        -9.340284267737328
      ],
      [
        "do",
        -9.340301075997438
      ],
      [
        "kosa",
        -9.34042534939826
      ],
      [
        "▁ingawa",
        -9.341349708469004
      ],
      [
        "▁makusudi",
        -9.342150070824584
      ],
      [
        "▁kwetu",
        -9.34252686823994
      ],
      [
        "▁Chakula",
        -9.344337656998826
      ],
      [
        "▁26",
        -9.344421656787093
      ],
      [
        "▁Mwa",
        -9.345617675457058
      ],
      [
        "▁Watendaji",
        -9.34643097145193
      ],
      [
        "▁mkulima",
        -9.347298755827085
      ],
      [
        "▁nusu",
        -9.347362864583314
      ],
      [
        "tekelezwa",
        -9.350791306325249
      ],
      [
        "▁2013",
        -9.3515937890288
      ],
      [
        "▁athari",
        -9.351687210201234
      ],
      [
        "daiwa",
        -9.351817989944683
      ],
      [
        "▁Mtanzania",
        -9.352343069898328
      ],
      [
        "▁Kuhusu",
        -9.352986838437475
      ],
      [
        "▁kufika",
        -9.353124747773784
      ],
      [
        "▁kujadili",
        -9.353158167468727
      ],
      [
        "▁iliyopita",
        -9.353376572111944
      ],
      [
        "▁madaktari",
        -9.35645265872864
      ],
      [
        "jitahidi",
        -9.358834065914689
      ],
      [
        "s)",
        -9.35912059178351
      ],
      [
        "▁kuwasilisha",
        -9.359878791084045
      ],
      [
        "▁programu",
        -9.359889033104189
      ],
      [
        "panda",
        -9.360197328179297
      ],
      [
        "mpa",
        -9.360487856532268
      ],
      [
        "▁Ina",
        -9.360517230021646
      ],
      [
        "▁wanyama",
        -9.361863667791644
      ],
      [
        "ende",
        -9.362104396683264
      ],
      [
        "▁hawaku",
        -9.363298548880918
      ],
      [
        "▁kuunga",
        -9.36411776642307
      ],
      [
        "▁jibu",
        -9.364361911215088
      ],
      [
        "▁tunataka",
        -9.365252166623035
      ],
      [
        "NA",
        -9.365369216674598
      ],
      [
        "ungu",
        -9.36552240520808
      ],
      [
        "pinga",
        -9.365908754683826
      ],
      [
        "▁kuwekeza",
        -9.366063128021649
      ],
      [
        "unda",
        -9.366389742814864
      ],
      [
        "▁Mafunzo",
        -9.36746116759858
      ],
      [
        "▁uko",
        -9.36809153377493
      ],
      [
        "▁ada",
        -9.369767191828156
      ],
      [
        "▁Balozi",
        -9.370565751600845
      ],
      [
        "poteza",
        -9.371717676166991
      ],
      [
        "husisha",
        -9.371736833875056
      ],
      [
        "▁S.",
        -9.37182929295647
      ],
      [
        "▁kulikuwa",
        -9.372132913781511
      ],
      [
        "▁kuzungumza",
        -9.37288608929294
      ],
      [
        "ondoa",
        -9.374391474232077
      ],
      [
        "shinda",
        -9.375057082000083
      ],
      [
        "ce",
        -9.375152520198604
      ],
      [
        "▁wataalamu",
        -9.375271825136828
      ],
      [
        "▁misitu",
        -9.376356538531049
      ],
      [
        "▁nane",
        -9.37698811445552
      ],
      [
        "▁Ndani",
        -9.37700583252248
      ],
      [
        "elezwa",
        -9.377119714834867
      ],
      [
        "▁ku-",
        -9.377402376077375
      ],
      [
        "▁vikao",
        -9.377715194671287
      ],
      [
        "▁kipato",
        -9.377727322612614
      ],
      [
        "pitisha",
        -9.37803328366903
      ],
      [
        "▁mitambo",
        -9.380962179340363
      ],
      [
        "▁kilomita",
        -9.38128258409474
      ],
      [
        "▁wasiwasi",
        -9.381972969866332
      ],
      [
        "yaya",
        -9.384737811726456
      ],
      [
        "▁Simba",
        -9.385423066081298
      ],
      [
        "▁reli",
        -9.386637153851302
      ],
      [
        "▁Teknolojia",
        -9.38713536515748
      ],
      [
        "▁posho",
        -9.38726595394175
      ],
      [
        "▁Nje",
        -9.387506297298966
      ],
      [
        "▁Uchumi",
        -9.388491138874883
      ],
      [
        "▁wazee",
        -9.388776365661418
      ],
      [
        "▁pongezi",
        -9.388943460399148
      ],
      [
        "▁maskini",
        -9.38985365894149
      ],
      [
        "▁hau",
        -9.392206136102404
      ],
      [
        "zalisha",
        -9.394617801120583
      ],
      [
        "▁mme",
        -9.394845059549423
      ],
      [
        "▁adhabu",
        -9.39579232194669
      ],
      [
        "▁zingine",
        -9.397613130128018
      ],
      [
        "▁kuhamasisha",
        -9.398364989358509
      ],
      [
        "▁mawazo",
        -9.398948889029246
      ],
      [
        "▁ushuru",
        -9.398955033374024
      ],
      [
        "▁shida",
        -9.39899246989428
      ],
      [
        "▁Mawasiliano",
        -9.399155946060416
      ],
      [
        "▁27",
        -9.39958606927549
      ],
      [
        "▁2,",
        -9.39986703671837
      ],
      [
        "▁kukaa",
        -9.400292684119362
      ],
      [
        "▁Miji",
        -9.400367675065269
      ],
      [
        "ch",
        -9.400951970291334
      ],
      [
        "▁hasara",
        -9.401166500905134
      ],
      [
        "▁misingi",
        -9.401233250989286
      ],
      [
        "▁maziwa",
        -9.401699883269687
      ],
      [
        "▁asi",
        -9.402413582819593
      ],
      [
        "▁matengenezo",
        -9.403525477458224
      ],
      [
        "ano",
        -9.40616055598916
      ],
      [
        "▁haiku",
        -9.406771812561177
      ],
      [
        "▁ukurasa",
        -9.407209181094403
      ],
      [
        "agiza",
        -9.40765264847652
      ],
      [
        "▁28",
        -9.4088688191549
      ],
      [
        "▁wanajeshi",
        -9.409211536918344
      ],
      [
        "▁nini?",
        -9.410641317133656
      ],
      [
        "▁huru",
        -9.411190625172445
      ],
      [
        "▁anapo",
        -9.411747457585946
      ],
      [
        "▁zilikuwa",
        -9.411851863534435
      ],
      [
        "▁kukamilika",
        -9.4121535631759
      ],
      [
        "▁lami",
        -9.413989335145676
      ],
      [
        "tengeneza",
        -9.41450725373803
      ],
      [
        "▁kuwawezesha",
        -9.415063925574271
      ],
      [
        "▁tuwe",
        -9.41546235546633
      ],
      [
        "▁Akasema",
        -9.417083113173584
      ],
      [
        "▁is",
        -9.419727172263466
      ],
      [
        "▁vyetu",
        -9.419730812401442
      ],
      [
        "▁majina",
        -9.419745154058935
      ],
      [
        "▁Kif.",
        -9.420218499290556
      ],
      [
        "▁Ndiyo",
        -9.420472489082904
      ],
      [
        "▁tunaomba",
        -9.420849189444189
      ],
      [
        "▁SERIKALI",
        -9.421095245495836
      ],
      [
        "▁Leo",
        -9.421274228558485
      ],
      [
        "tarajiwa",
        -9.421723007120304
      ],
      [
        "▁watakuwa",
        -9.422009271846177
      ],
      [
        "▁akina",
        -9.422484009352214
      ],
      [
        "▁Jakaya",
        -9.4229931018766
      ],
      [
        "ment",
        -9.423033761320903
      ],
      [
        "▁inakuwa",
        -9.423263367083257
      ],
      [
        "subiri",
        -9.424101412143155
      ],
      [
        "▁wastani",
        -9.424940198412337
      ],
      [
        "che",
        -9.425970414645365
      ],
      [
        "▁bandari",
        -9.425992668318584
      ],
      [
        "▁nasema",
        -9.426944606532608
      ],
      [
        "▁Ta",
        -9.43017046486051
      ],
      [
        "▁mahakamani",
        -9.430787534065711
      ],
      [
        "▁inge",
        -9.432186086356015
      ],
      [
        "tafuta",
        -9.432270396186276
      ],
      [
        "▁Ilani",
        -9.432271843461574
      ],
      [
        "▁Ru",
        -9.43288064268864
      ],
      [
        "▁Sayansi",
        -9.43334363693442
      ],
      [
        "▁8",
        -9.433602429368271
      ],
      [
        "▁7",
        -9.43404907491634
      ],
      [
        "▁Wilayani",
        -9.434682568834155
      ],
      [
        "kumbuka",
        -9.434689111389623
      ],
      [
        "▁visima",
        -9.4350307731472
      ],
      [
        "▁msimu",
        -9.435236190119785
      ],
      [
        "mbe",
        -9.435363461603764
      ],
      [
        "▁Salaam.",
        -9.436000077436692
      ],
      [
        "▁wizara",
        -9.437592911730466
      ],
      [
        "▁mikutano",
        -9.438084127135609
      ],
      [
        "fuatilia",
        -9.439412147810152
      ],
      [
        "▁wakubwa",
        -9.439452123850485
      ],
      [
        "▁TAMISEMI",
        -9.439808246358805
      ],
      [
        "▁kutatua",
        -9.439938791875374
      ],
      [
        "▁niweze",
        -9.440601011505656
      ],
      [
        "▁Ana",
        -9.44088568139373
      ],
      [
        "▁Lindi",
        -9.440891677791328
      ],
      [
        "ibu",
        -9.441773657403058
      ],
      [
        "▁MWENYEKITI",
        -9.442375770267622
      ],
      [
        "▁meli",
        -9.443172611392868
      ],
      [
        "▁lolote",
        -9.44332472462072
      ],
      [
        "husu",
        -9.444141779437144
      ],
      [
        "▁MA",
        -9.444606096617973
      ],
      [
        "▁re",
        -9.445675203294204
      ],
      [
        "▁hana",
        -9.446313445024993
      ],
      [
        "▁Z",
        -9.44632422830427
      ],
      [
        "▁abiria",
        -9.447153707527844
      ],
      [
        "▁23",
        -9.447880154073992
      ],
      [
        "tembelea",
        -9.448076646924612
      ],
      [
        "▁ushirika",
        -9.44811666766392
      ],
      [
        "pitia",
        -9.448494923764615
      ],
      [
        "▁kumaliza",
        -9.4486073938019
      ],
      [
        "TA",
        -9.449874555096876
      ],
      [
        "▁29",
        -9.450470745506728
      ],
      [
        "▁kilometa",
        -9.451379304205776
      ],
      [
        "▁mwanzo",
        -9.451890657919485
      ],
      [
        "▁ikilinganishwa",
        -9.45195992917208
      ],
      [
        "▁madogo",
        -9.452098029369663
      ],
      [
        "▁madawa",
        -9.452803031881892
      ],
      [
        "elekeza",
        -9.455100118958727
      ],
      [
        ",000/=",
        -9.457068185300663
      ],
      [
        "pungua",
        -9.457263818829542
      ],
      [
        "▁Utekelezaji",
        -9.457274786246002
      ],
      [
        "▁hekta",
        -9.457293626494678
      ],
      [
        "▁Ra",
        -9.457757085632904
      ],
      [
        "▁madhara",
        -9.458869451440636
      ],
      [
        "▁uwanja",
        -9.46071974612478
      ],
      [
        "▁alivyo",
        -9.46142811110512
      ],
      [
        "HA",
        -9.461567105716767
      ],
      [
        "pendekeza",
        -9.46369561783177
      ],
      [
        "▁liki",
        -9.464277378981343
      ],
      [
        "▁sija",
        -9.46468141987457
      ],
      [
        "▁ushindi",
        -9.464736691125127
      ],
      [
        "nde",
        -9.465019500747378
      ],
      [
        "▁vigezo",
        -9.465542639004424
      ],
      [
        "▁31",
        -9.466695385587272
      ],
      [
        "▁safi",
        -9.467016015168069
      ],
      [
        "▁tulikuwa",
        -9.467311914114656
      ],
      [
        "shwe",
        -9.467353844614935
      ],
      [
        "G",
        -9.467678483433843
      ],
      [
        "▁TANESCO",
        -9.468477176408728
      ],
      [
        "▁vibaya",
        -9.468968703003071
      ],
      [
        "▁Juu",
        -9.469129392422106
      ],
      [
        "jadili",
        -9.469678989436453
      ],
      [
        "▁Watumishi",
        -9.470438741158034
      ],
      [
        "▁wateja",
        -9.470477255889197
      ],
      [
        "kamilika",
        -9.473048788031267
      ],
      [
        "▁Iringa",
        -9.473544119063009
      ],
      [
        "nyo",
        -9.474581873218025
      ],
      [
        "▁(S",
        -9.474801909558373
      ],
      [
        "▁(i)",
        -9.474929920971991
      ],
      [
        "▁yasiyo",
        -9.475147300057984
      ],
      [
        "pelekea",
        -9.475323556112183
      ],
      [
        "▁wawe",
        -9.477488755522836
      ],
      [
        "kuta",
        -9.477598860781187
      ],
      [
        "▁kabisa.",
        -9.477961509809274
      ],
      [
        "▁hili,",
        -9.478325989058096
      ],
      [
        "▁historia",
        -9.478451304988743
      ],
      [
        "▁dakika",
        -9.479312241985363
      ],
      [
        "▁Hivyo,",
        -9.48064663142898
      ],
      [
        "▁kikamilifu",
        -9.481048170631963
      ],
      [
        "ene",
        -9.481395440686391
      ],
      [
        "▁lilikuwa",
        -9.481710931666417
      ],
      [
        "▁michango",
        -9.482784473402576
      ],
      [
        "▁mta",
        -9.483529875725475
      ],
      [
        "▁kuongezeka",
        -9.483871676224307
      ],
      [
        "▁zitakazo",
        -9.487402660944412
      ],
      [
        "\".",
        -9.487559923860282
      ],
      [
        "▁RAIS",
        -9.488265516138494
      ],
      [
        "▁80",
        -9.488443093132354
      ],
      [
        "▁alisema.",
        -9.488642815692806
      ],
      [
        "▁Sisi",
        -9.488703276382218
      ],
      [
        "▁wakuu",
        -9.488750151952182
      ],
      [
        "▁mkopo",
        -9.488834000583914
      ],
      [
        "▁jana,",
        -9.488981436234038
      ],
      [
        "itwa",
        -9.48954726811418
      ],
      [
        "dhani",
        -9.49159513466156
      ],
      [
        "▁kahawa",
        -9.49280100084852
      ],
      [
        "sisitiza",
        -9.492938968335425
      ],
      [
        "▁yalikuwa",
        -9.493908364232446
      ],
      [
        "▁Spik",
        -9.494143002621604
      ],
      [
        "▁sambamba",
        -9.49629128039996
      ],
      [
        "▁hazina",
        -9.49662287738574
      ],
      [
        "▁35",
        -9.497409275157
      ],
      [
        "▁wananchi.",
        -9.499169631720974
      ],
      [
        "▁maadili",
        -9.500834576714746
      ],
      [
        "▁kitendo",
        -9.501847235853862
      ],
      [
        "▁pembejeo",
        -9.502860313031585
      ],
      [
        "shughulikia",
        -9.50424138604308
      ],
      [
        "▁hivyo.",
        -9.504504836919011
      ],
      [
        "▁mahindi",
        -9.505519409750342
      ],
      [
        "▁hatuja",
        -9.50689018423046
      ],
      [
        "ng",
        -9.507343888243115
      ],
      [
        "▁humo",
        -9.507425487075192
      ],
      [
        "▁maji,",
        -9.507584034747271
      ],
      [
        "▁tisa",
        -9.508351961392574
      ],
      [
        "▁msimamo",
        -9.509983185348364
      ],
      [
        "▁vizuri.",
        -9.510056220163731
      ],
      [
        "▁inasema",
        -9.511196636469352
      ],
      [
        "▁inatoa",
        -9.511480771878263
      ],
      [
        "▁kumbukumbu",
        -9.511516092111671
      ],
      [
        "ju",
        -9.512006578416564
      ],
      [
        "▁ununuzi",
        -9.512029894950206
      ],
      [
        "faa",
        -9.513189062982178
      ],
      [
        "▁kutokea",
        -9.513254233399037
      ],
      [
        "▁mechi",
        -9.513635702891737
      ],
      [
        "▁Maliasili",
        -9.51407636793432
      ],
      [
        "elezea",
        -9.51464012318027
      ],
      [
        "▁Madiwani",
        -9.51664300284628
      ],
      [
        "▁Lengo",
        -9.51674974681151
      ],
      [
        "▁Bandari",
        -9.517161084134884
      ],
      [
        "▁Kaskazini",
        -9.517759743999878
      ],
      [
        ");",
        -9.517855348766371
      ],
      [
        "▁vyao",
        -9.518112844426303
      ],
      [
        "▁kufuata",
        -9.51910456941618
      ],
      [
        "▁The",
        -9.521336383663009
      ],
      [
        "▁waasi",
        -9.52228287244472
      ],
      [
        "▁Hatua",
        -9.522955716186967
      ],
      [
        "funga",
        -9.523163709460087
      ],
      [
        "▁pande",
        -9.523520647982
      ],
      [
        "▁MHE",
        -9.523712258696184
      ],
      [
        "▁haramu",
        -9.52438585176993
      ],
      [
        "▁ukosefu",
        -9.524901189254637
      ],
      [
        "▁tunao",
        -9.52552449614454
      ],
      [
        "▁Mfumo",
        -9.526978157899542
      ],
      [
        "▁Akizungumza",
        -9.528667486583386
      ],
      [
        "▁2010",
        -9.529665517553868
      ],
      [
        "▁maalumu",
        -9.529708915301036
      ],
      [
        "▁chuo",
        -9.530694223018148
      ],
      [
        "▁Kiongozi",
        -9.53113994748381
      ],
      [
        "angalie",
        -9.531595500185144
      ],
      [
        "▁9",
        -9.53338028074123
      ],
      [
        "tenga",
        -9.533474293994924
      ],
      [
        "▁nitoe",
        -9.533529679206795
      ],
      [
        "ho",
        -9.535076440126344
      ],
      [
        "▁kwanza,",
        -9.535717552180945
      ],
      [
        "▁uhusiano",
        -9.536368523361066
      ],
      [
        "▁Nyerere",
        -9.536770497717283
      ],
      [
        "▁kuni",
        -9.53803956980288
      ],
      [
        "▁kujiunga",
        -9.53824011241991
      ],
      [
        "▁kilo",
        -9.53826358965352
      ],
      [
        "andaa",
        -9.539371544059968
      ],
      [
        "▁walipo",
        -9.539471153373707
      ],
      [
        "▁yafuatayo:",
        -9.54000150876755
      ],
      [
        "▁kufanikisha",
        -9.54131941507113
      ],
      [
        "▁kudumu",
        -9.541453670115455
      ],
      [
        "▁70",
        -9.541642546870497
      ],
      [
        "▁Vilevile,",
        -9.542533439775386
      ],
      [
        "▁machache",
        -9.54426346504086
      ],
      [
        "▁yuko",
        -9.544344865255558
      ],
      [
        "▁ila",
        -9.545746791601122
      ],
      [
        "▁tutakuwa",
        -9.545777471880143
      ],
      [
        "▁uliopo",
        -9.545957840393765
      ],
      [
        "▁nichukue",
        -9.546821348552896
      ],
      [
        "▁kitaifa",
        -9.54695664118519
      ],
      [
        "▁maelekezo",
        -9.547969033167822
      ],
      [
        "fanyia",
        -9.548111589425083
      ],
      [
        "▁Magereza",
        -9.548499523214405
      ],
      [
        "▁be",
        -9.54956830118269
      ],
      [
        "▁mchana",
        -9.55009771312462
      ],
      [
        "▁Aprili",
        -9.551125728925118
      ],
      [
        "▁mwanamke",
        -9.552763407530756
      ],
      [
        "▁kuzungumzia",
        -9.553441819609624
      ],
      [
        "▁Utalii",
        -9.553553535581836
      ],
      [
        "▁uzoefu",
        -9.5548927784599
      ],
      [
        "▁majadiliano",
        -9.558265819428533
      ],
      [
        "▁Bu",
        -9.559444360810446
      ],
      [
        "▁utakuwa",
        -9.55974139504056
      ],
      [
        "▁endelevu",
        -9.561460067555869
      ],
      [
        "anga",
        -9.56150517464098
      ],
      [
        "▁dhana",
        -9.561713238184147
      ],
      [
        "▁Jaji",
        -9.56271290295964
      ],
      [
        "ine",
        -9.563101912307312
      ],
      [
        "▁Chi",
        -9.563302360638383
      ],
      [
        "ambiwa",
        -9.563334771958525
      ],
      [
        "▁kuwapatia",
        -9.564747945364452
      ],
      [
        "▁Vituo",
        -9.565088030529118
      ],
      [
        "lazimika",
        -9.565549494509376
      ],
      [
        "▁Dola",
        -9.56655482587999
      ],
      [
        "▁Bush",
        -9.566581621730023
      ],
      [
        "▁awe",
        -9.566593265979233
      ],
      [
        "▁hela",
        -9.56763844495815
      ],
      [
        "▁kushughulikia",
        -9.567672981912454
      ],
      [
        "▁uwe",
        -9.567880031688832
      ],
      [
        "▁z",
        -9.56893952904062
      ],
      [
        "▁aweze",
        -9.5713278463342
      ],
      [
        "▁nafuu",
        -9.571513784376824
      ],
      [
        "▁Makadirio",
        -9.572132814466723
      ],
      [
        "▁wanayo",
        -9.572602554205195
      ],
      [
        "▁wanataka",
        -9.572759289812549
      ],
      [
        "▁muafaka",
        -9.57520093789654
      ],
      [
        "▁naona",
        -9.57645295044011
      ],
      [
        "▁mojawapo",
        -9.57672779137317
      ],
      [
        "▁njaa",
        -9.577536096922085
      ],
      [
        "▁kisha",
        -9.578275274087977
      ],
      [
        "lima",
        -9.58083695743005
      ],
      [
        "ongea",
        -9.581985383697312
      ],
      [
        "▁China",
        -9.582504014393106
      ],
      [
        "▁Viti",
        -9.5826974016702
      ],
      [
        "it",
        -9.58298367220478
      ],
      [
        "▁hadhi",
        -9.583188449294472
      ],
      [
        "uzwa",
        -9.58671276598382
      ],
      [
        "▁Mjumbe",
        -9.5889732356124
      ],
      [
        "endeleza",
        -9.58922824624003
      ],
      [
        "amba",
        -9.589789325660906
      ],
      [
        "▁Uki",
        -9.589990901751465
      ],
      [
        "▁Dunia",
        -9.590003808164166
      ],
      [
        "▁George",
        -9.590217339312682
      ],
      [
        "liwa",
        -9.590252544649124
      ],
      [
        "▁soka",
        -9.59116033033516
      ],
      [
        "▁wapate",
        -9.591436493386864
      ],
      [
        "▁Juni,",
        -9.591706612672072
      ],
      [
        "athiri",
        -9.591967755960551
      ],
      [
        "▁kupokea",
        -9.592068936713174
      ],
      [
        "▁kijamii",
        -9.59220501770221
      ],
      [
        "tumiwa",
        -9.592302993094147
      ],
      [
        "punguza",
        -9.592304977004428
      ],
      [
        "▁kibiashara",
        -9.593259870613606
      ],
      [
        "▁kupanda",
        -9.593944944675384
      ],
      [
        "▁Kudumu",
        -9.59546666856869
      ],
      [
        "ajiri",
        -9.59554434806715
      ],
      [
        "▁Shinyanga",
        -9.595618902314882
      ],
      [
        "▁mzigo",
        -9.59576615756554
      ],
      [
        "▁Haki",
        -9.595929065585482
      ],
      [
        "▁halali",
        -9.59752641171952
      ],
      [
        "▁shaka",
        -9.597546396902528
      ],
      [
        "▁nilivyosema",
        -9.59824505809218
      ],
      [
        "▁Uganda",
        -9.598373715091345
      ],
      [
        "▁Taifa.",
        -9.598708029290846
      ],
      [
        "▁ombi",
        -9.598764395424231
      ],
      [
        "4,",
        -9.59897736301189
      ],
      [
        "▁pole",
        -9.59945669902618
      ],
      [
        "▁kusambaza",
        -9.600405817935275
      ],
      [
        "kidhi",
        -9.600419896412994
      ],
      [
        "▁kadhalika",
        -9.600578464991951
      ],
      [
        "▁kitabu",
        -9.601038968066147
      ],
      [
        "▁endapo",
        -9.601368741950786
      ],
      [
        "▁Mo",
        -9.602533704570504
      ],
      [
        "▁NCHI",
        -9.602582056293713
      ],
      [
        "stahili",
        -9.603564280593895
      ],
      [
        "▁Ha",
        -9.60373997852118
      ],
      [
        "▁aibu",
        -9.604327325458318
      ],
      [
        "▁kusoma",
        -9.604636616742948
      ],
      [
        "▁mapya",
        -9.605126059789246
      ],
      [
        "▁mshahara",
        -9.605829779215451
      ],
      [
        "▁naamini",
        -9.60591504329276
      ],
      [
        "▁Nne",
        -9.60645102044094
      ],
      [
        "▁marehemu",
        -9.606975839312714
      ],
      [
        "▁(ii)",
        -9.607242163157292
      ],
      [
        "▁kufuatia",
        -9.607420961218722
      ],
      [
        "▁huenda",
        -9.608628889456805
      ],
      [
        "▁wachezaji",
        -9.608661220304636
      ],
      [
        "▁Kiswahili",
        -9.609801982505337
      ],
      [
        "▁Baadhi",
        -9.610336326042267
      ],
      [
        "▁salama",
        -9.610474589972544
      ],
      [
        "▁isiyo",
        -9.61099566948096
      ],
      [
        "▁macho",
        -9.61172881288106
      ],
      [
        "▁Joseph",
        -9.61241341692294
      ],
      [
        "▁hapa,",
        -9.612674121047633
      ],
      [
        "kamilisha",
        -9.613963818011506
      ],
      [
        "▁sina",
        -9.613973280094228
      ],
      [
        "ombe",
        -9.6140312143936
      ],
      [
        "kufa",
        -9.61403650366842
      ],
      [
        "▁utamaduni",
        -9.614294667390658
      ],
      [
        "▁kuku",
        -9.6145219339284
      ],
      [
        "▁Nime",
        -9.614835948510269
      ],
      [
        "1,",
        -9.615141857493391
      ],
      [
        "▁uchambuzi",
        -9.615434201100324
      ],
      [
        "sahau",
        -9.617595836993477
      ],
      [
        "▁risasi",
        -9.617701303496805
      ],
      [
        "▁zisizo",
        -9.61835649869549
      ],
      [
        "▁Ya",
        -9.619667961757996
      ],
      [
        "▁Hawa",
        -9.619742906702696
      ],
      [
        "ation",
        -9.620427040320855
      ],
      [
        "0,000",
        -9.62045418533742
      ],
      [
        "▁udhibiti",
        -9.62058277165022
      ],
      [
        "3,",
        -9.62083066578304
      ],
      [
        "▁mizigo",
        -9.621119800602036
      ],
      [
        "▁Ndege",
        -9.621720519964686
      ],
      [
        "▁vitabu",
        -9.622529214128992
      ],
      [
        "mb",
        -9.622628855461564
      ],
      [
        "▁hatuwezi",
        -9.622879316723465
      ],
      [
        "▁mifumo",
        -9.624548440161163
      ],
      [
        "▁kambi",
        -9.624837784520793
      ],
      [
        "▁mwananchi",
        -9.625760754072196
      ],
      [
        "▁vikosi",
        -9.625907166846556
      ],
      [
        "▁kifo",
        -9.626002238988509
      ],
      [
        "shangaa",
        -9.626557582164953
      ],
      [
        "▁wito",
        -9.62659370703657
      ],
      [
        "▁Dkt",
        -9.626947989646036
      ],
      [
        "▁kuhifadhi",
        -9.627073598825394
      ],
      [
        "▁Magharibi",
        -9.62723313795532
      ],
      [
        "▁wilayani",
        -9.627539869134194
      ],
      [
        "il",
        -9.627565797776109
      ],
      [
        "ane",
        -9.627732787252755
      ],
      [
        "▁vifo",
        -9.628144764159664
      ],
      [
        "5,",
        -9.628545773613022
      ],
      [
        "▁chache",
        -9.6286735078276
      ],
      [
        "▁Programu",
        -9.63000097275796
      ],
      [
        "▁Rwanda",
        -9.630486738633348
      ],
      [
        "▁wizi",
        -9.63060015839436
      ],
      [
        "▁kuelekea",
        -9.630953984966332
      ],
      [
        "▁nchi.",
        -9.630990263775232
      ],
      [
        "▁nianze",
        -9.631194712103373
      ],
      [
        "▁Kilimanjaro",
        -9.631269376973249
      ],
      [
        "▁wapi?",
        -9.631800096183696
      ],
      [
        "ongozwa",
        -9.632160827947231
      ],
      [
        "▁mashine",
        -9.632596656120594
      ],
      [
        "▁tuhuma",
        -9.632598254258085
      ],
      [
        "▁Tanga",
        -9.634121256045162
      ],
      [
        "ina",
        -9.63485322676286
      ],
      [
        "▁Tanganyika",
        -9.63490808923203
      ],
      [
        "shirikiana",
        -9.635007000850171
      ],
      [
        "▁usi",
        -9.635417578721174
      ],
      [
        "▁utakao",
        -9.635930818117297
      ],
      [
        "▁(C",
        -9.63612385355382
      ],
      [
        ",000",
        -9.636409219275532
      ],
      [
        "▁ufumbuzi",
        -9.63650645151647
      ],
      [
        "▁makuu",
        -9.63723293428288
      ],
      [
        "▁nampongeza",
        -9.63793861406904
      ],
      [
        "▁jioni",
        -9.63910111037241
      ],
      [
        "LA",
        -9.63982303425594
      ],
      [
        "▁kutolewa",
        -9.64079000516888
      ],
      [
        "▁Tawala",
        -9.641293951943798
      ],
      [
        "▁maendeleo.",
        -9.641779054861225
      ],
      [
        "hitajika",
        -9.641827064179168
      ],
      [
        "pitishwa",
        -9.643579324231723
      ],
      [
        "▁dhahiri",
        -9.644213053667713
      ],
      [
        "▁aji",
        -9.64713196656503
      ],
      [
        "▁shukrani",
        -9.648303680950669
      ],
      [
        "▁kiu",
        -9.64847923290191
      ],
      [
        "MA",
        -9.64923366992192
      ],
      [
        "▁maafisa",
        -9.649521022360304
      ],
      [
        "mbu",
        -9.65060519216076
      ],
      [
        "▁kukutana",
        -9.650613761782768
      ],
      [
        "zuia",
        -9.651074558721316
      ],
      [
        "▁ufugaji",
        -9.65123974594395
      ],
      [
        "▁vidogo",
        -9.651333381147737
      ],
      [
        "▁sa",
        -9.651580886296328
      ],
      [
        "▁yapo",
        -9.651654616632165
      ],
      [
        "▁amekuwa",
        -9.651834913342508
      ],
      [
        "▁hewa",
        -9.652160376092514
      ],
      [
        "▁semina",
        -9.652428758171263
      ],
      [
        "▁uchimbaji",
        -9.653600400221084
      ],
      [
        "▁korosho",
        -9.65401582513608
      ],
      [
        "2,",
        -9.654517715722784
      ],
      [
        "▁kabisa,",
        -9.655371724381684
      ],
      [
        "hama",
        -9.655570410451569
      ],
      [
        "fanye",
        -9.65576295337744
      ],
      [
        "▁Wanawake",
        -9.65654916982438
      ],
      [
        "▁TRA",
        -9.65655500323885
      ],
      [
        "▁orodha",
        -9.656567503439083
      ],
      [
        "▁2006",
        -9.656883634652951
      ],
      [
        "▁inafanya",
        -9.657081547520676
      ],
      [
        "▁husika.",
        -9.65823927656162
      ],
      [
        "▁kutekelezwa",
        -9.65878687525679
      ],
      [
        "▁Julai",
        -9.659476204459366
      ],
      [
        "miliki",
        -9.659592814640307
      ],
      [
        "▁kuta",
        -9.659927920180817
      ],
      [
        "▁Mwanasheria",
        -9.660104088517436
      ],
      [
        "▁Suala",
        -9.660808333146344
      ],
      [
        "▁kubaini",
        -9.660862606166813
      ],
      [
        "▁Moshi",
        -9.660894227341288
      ],
      [
        "▁haita",
        -9.661862150611691
      ],
      [
        "▁ngumu",
        -9.661963225923904
      ],
      [
        "▁njema",
        -9.662178358699991
      ],
      [
        ":-",
        -9.662688974641908
      ],
      [
        "▁madarasa",
        -9.663070691582096
      ],
      [
        "6,",
        -9.66312686981858
      ],
      [
        "▁kupanga",
        -9.663165700520375
      ],
      [
        "▁halmashauri",
        -9.66426146605275
      ],
      [
        "▁baba",
        -9.664270293953678
      ],
      [
        "▁usajili",
        -9.664289587325914
      ],
      [
        "▁inapo",
        -9.664709788995156
      ],
      [
        "▁duni",
        -9.665142171552752
      ],
      [
        "▁Mama",
        -9.665412275590896
      ],
      [
        "ishauri",
        -9.66680618503608
      ],
      [
        "▁ujumbe",
        -9.667249464824277
      ],
      [
        "▁Hapa",
        -9.66785272657401
      ],
      [
        "▁Yanga",
        -9.669079352551156
      ],
      [
        "9,",
        -9.66940642490654
      ],
      [
        "▁mbunge",
        -9.670362200729992
      ],
      [
        "▁inashauri",
        -9.672498169707374
      ],
      [
        "▁atakuwa",
        -9.672693263481875
      ],
      [
        "▁mwongozo",
        -9.673258066904683
      ],
      [
        "▁kuacha",
        -9.674152198550129
      ],
      [
        "▁Mkoani",
        -9.674157640675013
      ],
      [
        "8,",
        -9.674770649297358
      ],
      [
        "tuma",
        -9.676180461428515
      ],
      [
        "▁mita",
        -9.677175770604414
      ],
      [
        "▁kutangaza",
        -9.67744258920516
      ],
      [
        "▁kote",
        -9.677641410261652
      ],
      [
        "▁ji",
        -9.677816146045734
      ],
      [
        "▁India",
        -9.677944463562014
      ],
      [
        "pongeza",
        -9.679705540147262
      ],
      [
        "▁kurudi",
        -9.68002496425283
      ],
      [
        "▁Tarafa",
        -9.681083880167192
      ],
      [
        "▁ilipo",
        -9.68284968092926
      ],
      [
        "▁hofu",
        -9.683111432603576
      ],
      [
        "▁gani?",
        -9.683720746395135
      ],
      [
        "▁ushindani",
        -9.6841296627955
      ],
      [
        "▁De",
        -9.686116711161
      ],
      [
        "▁kuunda",
        -9.686498840571565
      ],
      [
        "▁mwishoni",
        -9.687327437297151
      ],
      [
        "V",
        -9.68743085099156
      ],
      [
        "▁wanavyo",
        -9.687854535188432
      ],
      [
        "▁matibabu",
        -9.689039097394694
      ],
      [
        "kusanya",
        -9.689663845117128
      ],
      [
        "▁ukuaji",
        -9.690243687244934
      ],
      [
        "▁nje.",
        -9.690628595724668
      ],
      [
        "▁yaki",
        -9.690954869737656
      ],
      [
        "▁William",
        -9.69204943600473
      ],
      [
        "▁tunasema",
        -9.694564113374218
      ],
      [
        "RA",
        -9.695431955472747
      ],
      [
        "▁taaluma",
        -9.69574956794629
      ],
      [
        "▁haioni",
        -9.697193985728312
      ],
      [
        "▁Ahsante.",
        -9.69736648621256
      ],
      [
        "▁CUF",
        -9.697577771343765
      ],
      [
        "▁Kagera",
        -9.69855848210036
      ],
      [
        "fiki",
        -9.698684796656
      ],
      [
        "▁busara",
        -9.698810665739307
      ],
      [
        "▁200",
        -9.700442116115834
      ],
      [
        "▁Utafiti",
        -9.700864833909918
      ],
      [
        "lala",
        -9.700925133866413
      ],
      [
        "▁zimekuwa",
        -9.701653515588507
      ],
      [
        "▁vyake",
        -9.701701004991383
      ],
      [
        "ter",
        -9.701757864346051
      ],
      [
        "▁dogo",
        -9.702103165524708
      ],
      [
        "▁ninaomba",
        -9.7024815961409
      ],
      [
        "▁unapo",
        -9.702797406598872
      ],
      [
        "▁Aki",
        -9.703032086344212
      ],
      [
        "▁aliyo",
        -9.703654492892724
      ],
      [
        "▁kumshukuru",
        -9.704186338357848
      ],
      [
        "▁isipokuwa",
        -9.704457952711284
      ],
      [
        "▁wetu.",
        -9.705640674679064
      ],
      [
        "▁huwezi",
        -9.705832788448038
      ],
      [
        "▁uharibifu",
        -9.706859934233613
      ],
      [
        "▁uhalifu",
        -9.706862168558416
      ],
      [
        "▁magumu",
        -9.706977686759686
      ],
      [
        "▁kutokuwa",
        -9.706984448151264
      ],
      [
        "▁2012",
        -9.707007412921511
      ],
      [
        "ung",
        -9.70755362893646
      ],
      [
        "▁kuonyesha",
        -9.708565797167772
      ],
      [
        "▁shamba",
        -9.708852835002997
      ],
      [
        "ct",
        -9.7088626278153
      ],
      [
        "▁yao,",
        -9.70981480566756
      ],
      [
        "andaliwa",
        -9.710344317532764
      ],
      [
        "nyi",
        -9.710558070583488
      ],
      [
        "▁(MHE.",
        -9.71122680210788
      ],
      [
        "mia",
        -9.711277782565656
      ],
      [
        "SA",
        -9.71180362806495
      ],
      [
        "▁ujao",
        -9.711852111790192
      ],
      [
        "▁kuratibu",
        -9.712333844276245
      ],
      [
        "▁Kanisa",
        -9.712472906085363
      ],
      [
        "▁Mkakati",
        -9.71248196752818
      ],
      [
        "▁iangalie",
        -9.712525208917308
      ],
      [
        "▁Februari",
        -9.713649901440045
      ],
      [
        "sta",
        -9.713968963330622
      ],
      [
        "toke",
        -9.714299852437502
      ],
      [
        "RI",
        -9.714719026126758
      ],
      [
        "▁zika",
        -9.715712106521124
      ],
      [
        "Maana",
        -9.71660073862366
      ],
      [
        "▁walivyo",
        -9.716748012069916
      ],
      [
        "▁Septemba",
        -9.71732102189117
      ],
      [
        "▁umekuwa",
        -9.71745143664555
      ],
      [
        "▁Afisa",
        -9.717485259363734
      ],
      [
        "▁hicho,",
        -9.720375136463488
      ],
      [
        "wezekana",
        -9.721729578278818
      ],
      [
        "▁Bo",
        -9.72225325978712
      ],
      [
        "▁kutoku",
        -9.7230667890894
      ],
      [
        "▁Ufundi",
        -9.72334744715683
      ],
      [
        "▁as",
        -9.723403721521573
      ],
      [
        "pigwa",
        -9.724483552342072
      ],
      [
        "▁Ufaransa",
        -9.724689056611895
      ],
      [
        "▁wahusika",
        -9.727155242148593
      ],
      [
        "▁Development",
        -9.727589320169669
      ],
      [
        "▁Januari",
        -9.727780510816464
      ],
      [
        "▁wao.",
        -9.72865706003375
      ],
      [
        "pangwa",
        -9.728775369580603
      ],
      [
        "▁bu",
        -9.72925509776216
      ],
      [
        "▁kupatikana",
        -9.729562338563326
      ],
      [
        "▁kulevya",
        -9.729582610538433
      ],
      [
        "▁ziada",
        -9.729663312066098
      ],
      [
        "ongo",
        -9.729862088830204
      ],
      [
        "nzi",
        -9.72990565324083
      ],
      [
        "▁atakaye",
        -9.730806027096332
      ],
      [
        "▁inawezekana",
        -9.73124872314414
      ],
      [
        "▁wenzake",
        -9.731404908957792
      ],
      [
        "▁33",
        -9.73157007625951
      ],
      [
        "▁anayo",
        -9.73203674002612
      ],
      [
        "▁iliyokuwa",
        -9.732092321815696
      ],
      [
        "▁kingine",
        -9.732128679175805
      ],
      [
        "▁madarakani",
        -9.733173843987704
      ],
      [
        "▁90",
        -9.73519437055885
      ],
      [
        "▁moja,",
        -9.737140691021336
      ],
      [
        "▁JKT",
        -9.737924752406617
      ],
      [
        "▁liko",
        -9.740018355231635
      ],
      [
        "▁kwangu",
        -9.740098999788094
      ],
      [
        "▁kukidhi",
        -9.740623503356174
      ],
      [
        "(",
        -9.740838428646272
      ],
      [
        "▁hawezi",
        -9.741076853794413
      ],
      [
        "▁Uvuvi",
        -9.741169698330385
      ],
      [
        "▁Victoria",
        -9.742111166892052
      ],
      [
        "▁32",
        -9.742259885319015
      ],
      [
        "▁sasa.",
        -9.74272484970766
      ],
      [
        "▁mashindano",
        -9.742939823383283
      ],
      [
        "▁tumekuwa",
        -9.74317666111319
      ],
      [
        "▁Nyumba",
        -9.743186252069655
      ],
      [
        "▁katiba",
        -9.744336897794597
      ],
      [
        "▁45",
        -9.744753996276255
      ],
      [
        "▁Bora",
        -9.74516712809925
      ],
      [
        "▁tunavyo",
        -9.74544526571627
      ],
      [
        "▁DR.",
        -9.745566323271524
      ],
      [
        "▁Pwani",
        -9.746544353557578
      ],
      [
        "▁pato",
        -9.746789154310658
      ],
      [
        "▁akisema",
        -9.747363828952777
      ],
      [
        "▁2012/2013",
        -9.747461769185312
      ],
      [
        "ndu",
        -9.748009493884684
      ],
      [
        "▁Wapalestina",
        -9.748757523719393
      ],
      [
        "patiwa",
        -9.749436495180284
      ],
      [
        "ingiza",
        -9.74960827258079
      ],
      [
        "▁Watoto",
        -9.750833947916751
      ],
      [
        "▁damu",
        -9.752986919128194
      ],
      [
        "▁K.",
        -9.754349269361011
      ],
      [
        "▁mka",
        -9.75457899456466
      ],
      [
        "▁it",
        -9.754868314133509
      ],
      [
        "▁2000",
        -9.755223649850793
      ],
      [
        "▁Said",
        -9.755285793215585
      ],
      [
        "▁kuchaguliwa",
        -9.75587620964915
      ],
      [
        "▁Kujenga",
        -9.75651331426986
      ],
      [
        "▁kupima",
        -9.757322291934578
      ],
      [
        "▁yatakayo",
        -9.757911055588991
      ],
      [
        "▁Tatizo",
        -9.758555592792046
      ],
      [
        "ishia",
        -9.759393965519823
      ],
      [
        "▁akili",
        -9.75951836132148
      ],
      [
        "0,",
        -9.759556039036784
      ],
      [
        "US",
        -9.760082328953429
      ],
      [
        "tengwa",
        -9.760982809594353
      ],
      [
        "▁kupitisha",
        -9.760983329235422
      ],
      [
        "▁kuamua",
        -9.761542196322203
      ],
      [
        "tupa",
        -9.761754524732162
      ],
      [
        "▁Usimamizi",
        -9.761808410803898
      ],
      [
        "▁Azimio",
        -9.76246531144561
      ],
      [
        "kiri",
        -9.763780111336892
      ],
      [
        "letwa",
        -9.764469843057906
      ],
      [
        "▁Al",
        -9.76468241969804
      ],
      [
        "▁Julai,",
        -9.765304221976905
      ],
      [
        "▁hazija",
        -9.765336621618635
      ],
      [
        "▁kamili",
        -9.76565220181362
      ],
      [
        "hoji",
        -9.765858253724865
      ],
      [
        "▁Rasmi",
        -9.766416962143364
      ],
      [
        "▁ukubwa",
        -9.766431729463818
      ],
      [
        "▁yetu,",
        -9.766448436020536
      ],
      [
        "man",
        -9.766593407823729
      ],
      [
        "▁klabu",
        -9.76707769285667
      ],
      [
        "ngwe",
        -9.767425095929802
      ],
      [
        "▁mikubwa",
        -9.769125618049651
      ],
      [
        "KA",
        -9.769289175865522
      ],
      [
        "▁Machi,",
        -9.769430270376528
      ],
      [
        "▁Kwanza,",
        -9.769960636546834
      ],
      [
        "▁kilimo,",
        -9.769976727275274
      ],
      [
        "▁wamesha",
        -9.770162164255488
      ],
      [
        "▁uzito",
        -9.770403363330544
      ],
      [
        "shuhudia",
        -9.770921166165737
      ],
      [
        "iti",
        -9.771005317023024
      ],
      [
        "▁mjadala",
        -9.77104631486135
      ],
      [
        "▁lipo",
        -9.771851518295271
      ],
      [
        "▁mwekezaji",
        -9.772373645200652
      ],
      [
        "▁ukusanyaji",
        -9.77370141619372
      ],
      [
        "▁ajabu",
        -9.773736286135277
      ],
      [
        "▁picha",
        -9.773841702363452
      ],
      [
        "▁Bi",
        -9.774075300335308
      ],
      [
        "sikiliza",
        -9.77493682392333
      ],
      [
        "▁urefu",
        -9.77504187730634
      ],
      [
        "▁haiwezi",
        -9.776479574280456
      ],
      [
        "▁ifuatavyo",
        -9.776845301738549
      ],
      [
        "▁kusini",
        -9.777660690047188
      ],
      [
        "▁maandishi",
        -9.77911461583027
      ],
      [
        "TAWALA",
        -9.780404915452978
      ],
      [
        "▁mgombea",
        -9.7806265569456
      ],
      [
        "):",
        -9.781876606428176
      ],
      [
        "▁chetu",
        -9.782660295061335
      ],
      [
        "enzi",
        -9.782787826357168
      ],
      [
        "beba",
        -9.7828563503589
      ],
      [
        "▁tunapo",
        -9.783216875472128
      ],
      [
        "▁bungeni",
        -9.783871013602033
      ],
      [
        "▁Jumla",
        -9.784393762843008
      ],
      [
        "▁mwelekeo",
        -9.785065251577407
      ],
      [
        "▁kilimo.",
        -9.785449260159552
      ],
      [
        "shaji",
        -9.78569886925315
      ],
      [
        "▁walioko",
        -9.78602418551012
      ],
      [
        "▁kupanua",
        -9.78609978644248
      ],
      [
        "▁bure",
        -9.786103380412158
      ],
      [
        "▁hapa.",
        -9.78676575929066
      ],
      [
        "▁mapigano",
        -9.78708408823366
      ],
      [
        "▁nalo",
        -9.788160387797753
      ],
      [
        "▁nami",
        -9.788575276025243
      ],
      [
        "▁mabwawa",
        -9.789784261896234
      ],
      [
        "▁vurugu",
        -9.789785739771482
      ],
      [
        "▁matunda",
        -9.78980078392212
      ],
      [
        "▁uhaba",
        -9.789821724315118
      ],
      [
        "▁Ajira",
        -9.790461464380074
      ],
      [
        "▁kurekebisha",
        -9.791246672967972
      ],
      [
        "nufaika",
        -9.791569461630376
      ],
      [
        "▁Mfano",
        -9.792488752487197
      ],
      [
        "▁Arusha,",
        -9.792880098817747
      ],
      [
        "AS",
        -9.79317576814062
      ],
      [
        "▁Siku",
        -9.793582675188478
      ],
      [
        "▁Pa",
        -9.794914757319344
      ],
      [
        "▁dharura",
        -9.795200388058692
      ],
      [
        "▁mbadala",
        -9.795202220839744
      ],
      [
        "▁nimpongeze",
        -9.795204315758497
      ],
      [
        "▁katikati",
        -9.795605259793756
      ],
      [
        "▁2001",
        -9.795758781672458
      ],
      [
        "▁mijini",
        -9.795882715565114
      ],
      [
        "▁Bunge,",
        -9.796711030784596
      ],
      [
        "▁Taifa,",
        -9.796778351756323
      ],
      [
        "▁MIKOA",
        -9.797239792286335
      ],
      [
        "▁uhai",
        -9.79734093817113
      ],
      [
        "▁Jijini",
        -9.797704809978327
      ],
      [
        "▁Hassan",
        -9.79777330849281
      ],
      [
        "▁majeshi",
        -9.798003084318577
      ],
      [
        "Mheshimiwa",
        -9.798079568898329
      ],
      [
        "▁sura",
        -9.798187107460574
      ],
      [
        "▁matatu",
        -9.79846240581508
      ],
      [
        "dha",
        -9.799210063843216
      ],
      [
        "▁kueleza",
        -9.799222179253
      ],
      [
        "▁maarufu",
        -9.801331179949669
      ],
      [
        "▁utulivu",
        -9.801331287304748
      ],
      [
        "▁3,",
        -9.802158457519017
      ],
      [
        "▁2002",
        -9.804134664798198
      ],
      [
        "▁wasanii",
        -9.804754252207529
      ],
      [
        "▁kifedha",
        -9.805497240745524
      ],
      [
        "▁Hakuna",
        -9.80564275649838
      ],
      [
        "▁tiba",
        -9.805745954799676
      ],
      [
        "jali",
        -9.807354289712164
      ],
      [
        "J",
        -9.807578618054684
      ],
      [
        "▁usafirishaji",
        -9.807629418108842
      ],
      [
        "▁de",
        -9.807646019342725
      ],
      [
        "▁wanaoishi",
        -9.807661565177677
      ],
      [
        "▁kuondoka",
        -9.807696935719465
      ],
      [
        "▁ifikapo",
        -9.808187646414162
      ],
      [
        "▁Kimarekani",
        -9.808204700795002
      ],
      [
        "▁hicho.",
        -9.808683659649724
      ],
      [
        "▁Sehemu",
        -9.8106618087858
      ],
      [
        "anzia",
        -9.81079393879283
      ],
      [
        "fungua",
        -9.811082506109909
      ],
      [
        "▁tuko",
        -9.812076433499836
      ],
      [
        "▁kuwapongeza",
        -9.81364279969538
      ],
      [
        "▁matangazo",
        -9.813706734786692
      ],
      [
        "▁So",
        -9.814015533896876
      ],
      [
        "fungwa",
        -9.814152158810767
      ],
      [
        "▁Mwanza,",
        -9.814355262552072
      ],
      [
        "▁ziweze",
        -9.814363682954152
      ],
      [
        "linda",
        -9.81437815188862
      ],
      [
        "▁kuandika",
        -9.815312257914314
      ],
      [
        "▁mawe",
        -9.815427011417755
      ],
      [
        "▁kibali",
        -9.81589898989176
      ],
      [
        "▁Uwekezaji",
        -9.816478316172496
      ],
      [
        "▁alitoa",
        -9.817813234021788
      ],
      [
        "▁Kila",
        -9.818409199411692
      ],
      [
        "son",
        -9.819536186091916
      ],
      [
        "▁Bw",
        -9.819536751188345
      ],
      [
        "endele",
        -9.819908499341754
      ],
      [
        "▁kuanzishwa",
        -9.820256541316962
      ],
      [
        "▁MAENDELEO",
        -9.820648777229676
      ],
      [
        "0.",
        -9.820921380472605
      ],
      [
        "▁Geita",
        -9.821728979455576
      ],
      [
        "athirika",
        -9.82213743924678
      ],
      [
        "▁Hakimu",
        -9.82234394830316
      ],
      [
        "▁baraza",
        -9.822380172799502
      ],
      [
        "tangazwa",
        -9.822588832344824
      ],
      [
        "▁end",
        -9.823680107550045
      ],
      [
        "▁Mzee",
        -9.823763657312137
      ],
      [
        "▁(2)",
        -9.82423595707469
      ],
      [
        "▁Le",
        -9.825223199760131
      ],
      [
        "▁maabara",
        -9.826239538692668
      ],
      [
        "hudumia",
        -9.82637722265806
      ],
      [
        "▁dhi",
        -9.827053561438351
      ],
      [
        "▁Hotuba",
        -9.827470842338125
      ],
      [
        "▁Juni",
        -9.827574023338666
      ],
      [
        "▁trilioni",
        -9.827639383110595
      ],
      [
        "▁(Kicheko)",
        -9.827700896236234
      ],
      [
        "▁wakimbizi",
        -9.82784864192713
      ],
      [
        "LI",
        -9.828539948924131
      ],
      [
        "▁Msemaji",
        -9.82905250233051
      ],
      [
        "▁mawaziri",
        -9.8297461701563
      ],
      [
        "▁kutenga",
        -9.830899471087513
      ],
      [
        "▁kudai",
        -9.83099396178305
      ],
      [
        "▁Ruvuma",
        -9.831268916973489
      ],
      [
        "et",
        -9.831365437300498
      ],
      [
        "▁(A",
        -9.831397048136315
      ],
      [
        "▁wanaume",
        -9.831553074522288
      ],
      [
        "▁kupoteza",
        -9.831569251779316
      ],
      [
        "onya",
        -9.831777247717971
      ],
      [
        "▁kulipwa",
        -9.83408270821509
      ],
      [
        "▁kutimiza",
        -9.83511603714649
      ],
      [
        "▁deni",
        -9.835256964810869
      ],
      [
        "▁viwili",
        -9.835500044761744
      ],
      [
        "▁kujali",
        -9.83582706901637
      ],
      [
        "▁nazo",
        -9.835854366398635
      ],
      [
        "▁or",
        -9.83606445525163
      ],
      [
        "▁watalii",
        -9.836069126713658
      ],
      [
        "rudisha",
        -9.836667171763857
      ],
      [
        "▁Dodoma,",
        -9.836873775297429
      ],
      [
        "▁Marekani,",
        -9.837365849262994
      ],
      [
        "fikiwa",
        -9.837386423159195
      ],
      [
        "▁kupinga",
        -9.83753017450782
      ],
      [
        "▁aziri",
        -9.838227579151653
      ],
      [
        "▁Pemba",
        -9.8383850258255
      ],
      [
        "▁Kw",
        -9.839208921534166
      ],
      [
        "▁kumekuwa",
        -9.83927546165652
      ],
      [
        "▁dhahabu",
        -9.83963669653084
      ],
      [
        "▁36",
        -9.839642004469898
      ],
      [
        "▁hisa",
        -9.839883266679855
      ],
      [
        "▁Abdallah",
        -9.840424423691232
      ],
      [
        "▁vitendea",
        -9.8404472973193
      ],
      [
        "▁Uchukuzi",
        -9.841155035386466
      ],
      [
        "endeshwa",
        -9.84211077521119
      ],
      [
        "teuliwa",
        -9.842114994158806
      ],
      [
        "dhibiti",
        -9.842271945864752
      ],
      [
        "▁500",
        -9.842743274253255
      ],
      [
        "unganisha",
        -9.843053245748202
      ],
      [
        "some",
        -9.844467763907897
      ],
      [
        "▁wanasiasa",
        -9.844619370905589
      ],
      [
        "▁Sura",
        -9.844930958923474
      ],
      [
        "▁ulemavu",
        -9.845333081472171
      ],
      [
        "▁Mtendaji",
        -9.84533358789996
      ],
      [
        "▁Awali",
        -9.846059940709894
      ],
      [
        "ar",
        -9.846733767682348
      ],
      [
        "wakilisha",
        -9.846842934433486
      ],
      [
        "▁eti",
        -9.847438411450874
      ],
      [
        "▁wakiwemo",
        -9.847771487242523
      ],
      [
        "▁Ikulu",
        -9.84890959355532
      ],
      [
        "▁waliyo",
        -9.849248848412053
      ],
      [
        "ent",
        -9.849295999253972
      ],
      [
        "undwa",
        -9.8493449243899
      ],
      [
        "elekea",
        -9.849790365849836
      ],
      [
        "waambia",
        -9.849891533131174
      ],
      [
        "▁kumu",
        -9.849996071044147
      ],
      [
        "tengenezwa",
        -9.850149723296582
      ],
      [
        "wasilishwa",
        -9.850459935051813
      ],
      [
        "fikisha",
        -9.850618021912728
      ],
      [
        "▁tamaa",
        -9.851783150055436
      ],
      [
        "▁yakinifu",
        -9.851786247528096
      ],
      [
        "chelewa",
        -9.851799326720958
      ],
      [
        "▁Iraq.",
        -9.852059177248744
      ],
      [
        "▁up",
        -9.853294694488977
      ],
      [
        "imarisha",
        -9.854531956774805
      ],
      [
        "and",
        -9.85471074502244
      ],
      [
        "▁mbalimb",
        -9.854966102282289
      ],
      [
        "shika",
        -9.855064485771308
      ],
      [
        "▁tamko",
        -9.855382861889373
      ],
      [
        "▁Ndogo",
        -9.855570072204271
      ],
      [
        "▁kijana",
        -9.856109689183793
      ],
      [
        "▁H.",
        -9.856173650684518
      ],
      [
        "▁Zanzibar.",
        -9.858036107460004
      ],
      [
        "▁Uwanja",
        -9.858269703767396
      ],
      [
        "shukuru",
        -9.8588813448949
      ],
      [
        "▁maandamano",
        -9.858992134843731
      ],
      [
        "▁Binafsi",
        -9.859716245173384
      ],
      [
        "▁zahanati",
        -9.859716424158808
      ],
      [
        "tarajia",
        -9.859817233560058
      ],
      [
        "▁Co",
        -9.85996801162111
      ],
      [
        "▁(iii)",
        -9.860936707157409
      ],
      [
        "▁nani",
        -9.861074313154925
      ],
      [
        "▁nyama",
        -9.861708207095337
      ],
      [
        "▁darasa",
        -9.86416114787486
      ],
      [
        "▁300",
        -9.866236349613068
      ],
      [
        "▁FULANI",
        -9.867716286543974
      ],
      [
        "iwa",
        -9.868558504314066
      ],
      [
        "▁kulima",
        -9.868585129613995
      ],
      [
        "▁kikosi",
        -9.86870165939997
      ],
      [
        "AN",
        -9.86893273996296
      ],
      [
        "▁kufanyiwa",
        -9.869157806721716
      ],
      [
        "▁limekuwa",
        -9.869179788522182
      ],
      [
        "RE",
        -9.869459975110958
      ],
      [
        "▁kupatiwa",
        -9.869573742400776
      ],
      [
        "▁Korea",
        -9.86991264975783
      ],
      [
        "▁Naye",
        -9.870207062865257
      ],
      [
        "▁Nili",
        -9.87098138252816
      ],
      [
        "gharimu",
        -9.871374253061504
      ],
      [
        "▁tatu,",
        -9.871535686483243
      ],
      [
        "um",
        -9.87203129776906
      ],
      [
        "▁Bank",
        -9.87359301372638
      ],
      [
        "▁mifuko",
        -9.874310371746276
      ],
      [
        "▁walisema",
        -9.8749339687326
      ],
      [
        "ers",
        -9.874969250666023
      ],
      [
        "▁kutakuwa",
        -9.877155956790372
      ],
      [
        "shw",
        -9.877872626961516
      ],
      [
        "▁am",
        -9.87791723901778
      ],
      [
        "▁kima",
        -9.877926377127013
      ],
      [
        "jumuisha",
        -9.878199876380643
      ],
      [
        "▁kukarabati",
        -9.878729817670548
      ],
      [
        "peleke",
        -9.87948918052448
      ],
      [
        "bainika",
        -9.880632699781607
      ],
      [
        "▁wange",
        -9.881589031338462
      ],
      [
        "▁MKUU",
        -9.882830437144872
      ],
      [
        "▁zuri",
        -9.883274861963802
      ],
      [
        "andikwa",
        -9.883592627695958
      ],
      [
        "zaliwa",
        -9.884067654058336
      ],
      [
        "▁kusudi",
        -9.884154176300274
      ],
      [
        "fanana",
        -9.884292872277753
      ],
      [
        "▁Vikuu",
        -9.88465565791195
      ],
      [
        "▁(N",
        -9.885108295632849
      ],
      [
        "▁ipasavyo",
        -9.88590050042238
      ],
      [
        "▁wachimbaji",
        -9.886117834279418
      ],
      [
        "▁kuongoza",
        -9.886625598091271
      ],
      [
        "▁Hazina",
        -9.887630151956316
      ],
      [
        "▁kushukuru",
        -9.889080756551046
      ],
      [
        "▁tunawa",
        -9.889189967737185
      ],
      [
        "▁2017",
        -9.889971807783027
      ],
      [
        "▁Moja",
        -9.89104969547448
      ],
      [
        "eni",
        -9.891478803281808
      ],
      [
        "chaguliwa",
        -9.891542002855775
      ],
      [
        "ant",
        -9.89156885516924
      ],
      [
        "taki",
        -9.89186117172788
      ],
      [
        "▁(1)",
        -9.892710581524195
      ],
      [
        "▁Matokeo",
        -9.893579128201493
      ],
      [
        "fikiria",
        -9.894257951975185
      ],
      [
        "zwa",
        -9.894789014343232
      ],
      [
        "▁kume",
        -9.894988264905107
      ],
      [
        "▁roho",
        -9.895111905161048
      ],
      [
        "▁siri",
        -9.89520834945963
      ],
      [
        "▁ukame",
        -9.895293985455416
      ],
      [
        "▁ujumla.",
        -9.895436347518777
      ],
      [
        "▁Baba",
        -9.896026571616312
      ],
      [
        "kabiliwa",
        -9.896538855084875
      ],
      [
        "▁imara",
        -9.898142110776895
      ],
      [
        "▁kike",
        -9.89845881135551
      ],
      [
        "▁Hoja",
        -9.898719455375986
      ],
      [
        "▁Mkapa",
        -9.898983819530066
      ],
      [
        "▁Marehemu",
        -9.899640233643453
      ],
      [
        "▁se",
        -9.900527587474194
      ],
      [
        "▁on",
        -9.90107692484954
      ],
      [
        "▁Mei",
        -9.901215694427666
      ],
      [
        "▁nguo",
        -9.90352229976865
      ],
      [
        "▁barabarani",
        -9.903741580520403
      ],
      [
        "ifanya",
        -9.90411965282482
      ],
      [
        "jengea",
        -9.904370148121906
      ],
      [
        "ondo",
        -9.90448411761882
      ],
      [
        "oni",
        -9.904703462621711
      ],
      [
        "und",
        -9.904756236812826
      ],
      [
        "▁naiomba",
        -9.904812770640191
      ],
      [
        "▁me",
        -9.90494800509861
      ],
      [
        "▁nyaraka",
        -9.905196123956095
      ],
      [
        "▁hawawezi",
        -9.905261472099305
      ],
      [
        "▁namshukuru",
        -9.906519503619151
      ],
      [
        "▁2016",
        -9.906527782940634
      ],
      [
        "▁imeanza",
        -9.906735333006155
      ],
      [
        "▁al",
        -9.906771681238316
      ],
      [
        "▁takriban",
        -9.906954598304306
      ],
      [
        "▁34",
        -9.90695754516453
      ],
      [
        "omb",
        -9.907727320756385
      ],
      [
        "▁mke",
        -9.908387344917482
      ],
      [
        "▁Zanzibar,",
        -9.908688311991186
      ],
      [
        "▁ujuzi",
        -9.908727395830388
      ],
      [
        "▁bahari",
        -9.908914437638591
      ],
      [
        "▁Mashariki,",
        -9.9091968075976
      ],
      [
        "▁amri",
        -9.90974523843377
      ],
      [
        "ili",
        -9.90999156991115
      ],
      [
        "▁ange",
        -9.91001110857933
      ],
      [
        "ur",
        -9.910161318927328
      ],
      [
        "▁Hiyo",
        -9.910424033175968
      ],
      [
        "weke",
        -9.911246157089746
      ],
      [
        "▁nizungumzie",
        -9.911862478437731
      ],
      [
        "▁imesha",
        -9.912230562512285
      ],
      [
        "nga,",
        -9.91290223726945
      ],
      [
        "▁mafao",
        -9.913280649735835
      ],
      [
        "▁neno",
        -9.91339856243519
      ],
      [
        "▁demokrasia",
        -9.913813138904391
      ],
      [
        "▁harakati",
        -9.914297691752722
      ],
      [
        "▁ba",
        -9.915170273051604
      ],
      [
        "▁kupita",
        -9.915276938317366
      ],
      [
        "▁ningeomba",
        -9.915784879902615
      ],
      [
        "▁tunge",
        -9.915848720694823
      ],
      [
        "▁Re",
        -9.91608171314498
      ],
      [
        "▁Ame",
        -9.916611617135857
      ],
      [
        "▁Songea",
        -9.916739363050407
      ],
      [
        "▁itakapo",
        -9.917640421454138
      ],
      [
        "ir",
        -9.918333606592062
      ],
      [
        "ER",
        -9.918391943196522
      ],
      [
        "▁lika",
        -9.918786679620316
      ],
      [
        "wekeza",
        -9.918873279843137
      ],
      [
        "itaka",
        -9.920508406285908
      ],
      [
        "ON",
        -9.921412597714324
      ],
      [
        "dhi",
        -9.92184011016128
      ],
      [
        "▁imefanya",
        -9.92245176434044
      ],
      [
        "▁kengele",
        -9.922493737772518
      ],
      [
        "▁Kongo",
        -9.922582772679572
      ],
      [
        "▁anataka",
        -9.9250347685161
      ],
      [
        "▁ndivyo",
        -9.925587408313582
      ],
      [
        "▁mtaji",
        -9.926673726600267
      ],
      [
        "▁D.",
        -9.92756338704105
      ],
      [
        "▁mwenyekiti",
        -9.927962782002194
      ],
      [
        "id",
        -9.9286710340081
      ],
      [
        "▁Rukwa",
        -9.928983261589243
      ],
      [
        "▁Muhimbili",
        -9.929459655758762
      ],
      [
        "gawa",
        -9.929773432360047
      ],
      [
        "▁KILIMO",
        -9.930236645646945
      ],
      [
        "nja",
        -9.93024612885318
      ],
      [
        "▁kutegemea",
        -9.930651369241517
      ],
      [
        "furahi",
        -9.931206644580328
      ],
      [
        "▁Hai",
        -9.931756786296477
      ],
      [
        "▁iliyotolewa",
        -9.932168419008908
      ],
      [
        "aga",
        -9.932304338807858
      ],
      [
        "▁vigumu",
        -9.93261825567195
      ],
      [
        "▁tulivyo",
        -9.932685740996186
      ],
      [
        "▁eshi",
        -9.934059677598178
      ],
      [
        "▁kufungua",
        -9.934352310598625
      ],
      [
        "▁vyakula",
        -9.9346339038951
      ],
      [
        "▁kukubali",
        -9.93492435437978
      ],
      [
        "▁inaonekana",
        -9.936160142607228
      ],
      [
        "patao",
        -9.936246558513954
      ],
      [
        "kusudia",
        -9.9362832819947
      ],
      [
        "ver",
        -9.936443379423611
      ],
      [
        "▁vibali",
        -9.936544176964553
      ],
      [
        "▁2022",
        -9.936569715686923
      ],
      [
        "▁watumiaji",
        -9.93741429185194
      ],
      [
        "azi",
        -9.937594491138896
      ],
      [
        "▁magazeti",
        -9.939608047553492
      ],
      [
        "▁bunge",
        -9.94111004453834
      ],
      [
        "tetea",
        -9.94175774766246
      ],
      [
        "▁matakwa",
        -9.942016046255656
      ],
      [
        "▁usambazaji",
        -9.942751527915066
      ],
      [
        "▁usio",
        -9.94318596411789
      ],
      [
        "10",
        -9.943234889147735
      ],
      [
        "▁ukiangalia",
        -9.943598006936426
      ],
      [
        "BA",
        -9.944942960179262
      ],
      [
        "kw",
        -9.945291056339098
      ],
      [
        "tusaidia",
        -9.945357473962574
      ],
      [
        "▁vikwazo",
        -9.946694907928867
      ],
      [
        "▁ukumbi",
        -9.946720683432185
      ],
      [
        "▁minne",
        -9.947559966617852
      ],
      [
        "▁vijijini.",
        -9.947608822692292
      ],
      [
        "ngekuwa",
        -9.948135728340668
      ],
      [
        "▁waliopo",
        -9.948608357270151
      ],
      [
        "boresha",
        -9.948713313087394
      ],
      [
        "▁Makazi",
        -9.949810722951357
      ],
      [
        "▁Kiwanda",
        -9.95075795988977
      ],
      [
        "▁Ko",
        -9.95177829487962
      ],
      [
        "vunja",
        -9.951827450373749
      ],
      [
        "▁Da",
        -9.951843276189557
      ],
      [
        "▁mbili,",
        -9.952460194851398
      ],
      [
        "▁Hati",
        -9.952617251533884
      ],
      [
        "▁Bahari",
        -9.953106531970777
      ],
      [
        "▁Haya",
        -9.953503185794496
      ],
      [
        "▁2004/2005",
        -9.953796135145556
      ],
      [
        "ati",
        -9.953936415250237
      ],
      [
        "▁Mwongozo",
        -9.954628131605782
      ],
      [
        "▁2009",
        -9.954787835082062
      ],
      [
        "▁Pinda",
        -9.95480237652296
      ],
      [
        "▁2011",
        -9.955671528380318
      ],
      [
        "▁umeme.",
        -9.955849317935016
      ],
      [
        "▁ufundi",
        -9.95643012726352
      ],
      [
        "▁madhumuni",
        -9.95702043749763
      ],
      [
        "▁Miundombinu",
        -9.957020869647897
      ],
      [
        "▁\"M",
        -9.95745806095024
      ],
      [
        "▁uliofanyika",
        -9.95773565201268
      ],
      [
        "▁42",
        -9.957778227026155
      ],
      [
        "▁kimsingi",
        -9.957864310799348
      ],
      [
        "malizika",
        -9.958874032334135
      ],
      [
        "▁wanaendelea",
        -9.959730606066447
      ],
      [
        "▁38",
        -9.960523768637437
      ],
      [
        "▁alipokuwa",
        -9.960751670979224
      ],
      [
        "▁leo.",
        -9.9616777434643
      ],
      [
        "▁azma",
        -9.961822878865824
      ],
      [
        "▁wenzao",
        -9.9626249431476
      ],
      [
        "▁mauzo",
        -9.96263025037284
      ],
      [
        "20",
        -9.96267742172925
      ],
      [
        "▁mapambano",
        -9.963428153957224
      ],
      [
        "▁mwenendo",
        -9.963600324971887
      ],
      [
        "▁Oktoba",
        -9.964218217281385
      ],
      [
        "▁uwiano",
        -9.964232142986813
      ],
      [
        "▁ninge",
        -9.96493434064943
      ],
      [
        "▁muziki",
        -9.965037991877582
      ],
      [
        "▁Mtu",
        -9.965641961994384
      ],
      [
        "▁wafadhili",
        -9.966165828404456
      ],
      [
        "▁mashariki",
        -9.966647477540215
      ],
      [
        "▁yenu",
        -9.96672698748782
      ],
      [
        "▁Mwanzo",
        -9.966753433511872
      ],
      [
        "▁makao",
        -9.967012239177944
      ],
      [
        "TI",
        -9.967278875060758
      ],
      [
        "▁vivutio",
        -9.967454017568556
      ],
      [
        "safiri",
        -9.967724670061768
      ],
      [
        "▁alama",
        -9.96780489945008
      ],
      [
        "▁ufisadi",
        -9.968276383480951
      ],
      [
        "▁un",
        -9.969445300957483
      ],
      [
        "▁wanne",
        -9.969500358705634
      ],
      [
        "▁kufa",
        -9.97072717511995
      ],
      [
        "▁ahsante.",
        -9.97092201189507
      ],
      [
        "▁iliyoko",
        -9.97136838725656
      ],
      [
        "▁chumba",
        -9.971504776810008
      ],
      [
        "bainisha",
        -9.972046308343868
      ],
      [
        "▁kazi,",
        -9.97238149901962
      ],
      [
        "wepo",
        -9.972491714609044
      ],
      [
        "▁Msumbiji",
        -9.97311736387111
      ],
      [
        "▁nashauri",
        -9.974141952297328
      ],
      [
        "▁wapewe",
        -9.974173921308145
      ],
      [
        "▁fani",
        -9.974576805630033
      ],
      [
        "▁Njombe",
        -9.974752520748876
      ],
      [
        "zunguka",
        -9.97556200942665
      ],
      [
        "▁kelele",
        -9.975624530043447
      ],
      [
        "▁Duniani",
        -9.97594785969618
      ],
      [
        "▁atafuatiw",
        -9.976153684476198
      ],
      [
        "▁kadri",
        -9.97636877988005
      ],
      [
        "▁Mwisho",
        -9.977183425988102
      ],
      [
        "▁Uongozi",
        -9.977997969378809
      ],
      [
        "▁Desemba",
        -9.97816824261091
      ],
      [
        "▁uwepo",
        -9.978630014364782
      ],
      [
        ".5",
        -9.979803689335318
      ],
      [
        "▁mashambulio",
        -9.98126407781653
      ],
      [
        "▁hoteli",
        -9.98126445729139
      ],
      [
        "NI",
        -9.981816815726136
      ],
      [
        "▁ikawa",
        -9.982181932448071
      ],
      [
        "▁wapiga",
        -9.982626657169384
      ],
      [
        "▁rafiki",
        -9.982944080273455
      ],
      [
        "▁tuangalie",
        -9.983194463405656
      ],
      [
        "▁ijayo",
        -9.983554537895582
      ],
      [
        "▁mkazi",
        -9.983583363196288
      ],
      [
        "▁kuwashukuru",
        -9.983801953729436
      ],
      [
        "ruhusiwa",
        -9.98392269169528
      ],
      [
        "nye",
        -9.984696293845005
      ],
      [
        "▁Ushirikiano",
        -9.985362577596591
      ],
      [
        "futa",
        -9.98683448562457
      ],
      [
        "tengewa",
        -9.986891194046626
      ],
      [
        "sababishwa",
        -9.986914183415484
      ],
      [
        "▁Hesabu",
        -9.987006499713498
      ],
      [
        "ratibu",
        -9.987025525648264
      ],
      [
        "▁kanda",
        -9.987438228252826
      ],
      [
        "▁Zi",
        -9.987937638141757
      ],
      [
        "ridhika",
        -9.988206010951153
      ],
      [
        "▁yanaweza",
        -9.988417245894606
      ],
      [
        "▁ifanye",
        -9.98871747081362
      ],
      [
        "▁mgomo",
        -9.989478323116735
      ],
      [
        "▁yamekuwa",
        -9.98961204962665
      ],
      [
        "kia",
        -9.990126359035266
      ],
      [
        "kamatwa",
        -9.99042533285051
      ],
      [
        "▁Michezo",
        -9.991128549706438
      ],
      [
        "is",
        -9.991626402971256
      ],
      [
        "▁midogo",
        -9.992021376251772
      ],
      [
        "▁2015",
        -9.992497692544402
      ],
      [
        "▁Congo",
        -9.992654431213932
      ],
      [
        "▁uweze",
        -9.99614153291314
      ],
      [
        "▁Bonde",
        -9.99703070496918
      ],
      [
        "gusa",
        -9.997248136158186
      ],
      [
        "▁Wafanyakazi",
        -9.99792749021617
      ],
      [
        "▁Hussein",
        -9.998591216116772
      ],
      [
        "▁do",
        -9.99866389159504
      ],
      [
        "▁tunaendelea",
        -9.998666863752154
      ],
      [
        "▁kula",
        -9.999290270253628
      ],
      [
        "kub",
        -9.999779455886667
      ],
      [
        "ingizwa",
        -9.999839043706714
      ],
      [
        "mwambia",
        -10.000485466573142
      ],
      [
        "▁mitaji",
        -10.000844762054284
      ],
      [
        "▁vizuri,",
        -10.002316727993431
      ],
      [
        "DI",
        -10.002940010951118
      ],
      [
        "▁ti",
        -10.003362060027156
      ],
      [
        "▁ushiriki",
        -10.004940970371962
      ],
      [
        "▁kuelewa",
        -10.0050140106196
      ],
      [
        "▁Nchi,",
        -10.00516251328692
      ],
      [
        "▁imetoa",
        -10.005395113075076
      ],
      [
        "▁FEDHA",
        -10.006110049648012
      ],
      [
        "▁zikiwemo",
        -10.006163219528606
      ],
      [
        "gundua",
        -10.006520838183103
      ],
      [
        "▁itasaidia",
        -10.007217893166564
      ],
      [
        "shuka",
        -10.007250765097842
      ],
      [
        "▁ndoa",
        -10.008770764238932
      ],
      [
        "wajibika",
        -10.009064128063
      ],
      [
        "patia",
        -10.009583907239048
      ],
      [
        "▁nyingine.",
        -10.009620204240523
      ],
      [
        "▁Aprili,",
        -10.009994459288912
      ],
      [
        "▁Kodi",
        -10.011376694767549
      ],
      [
        "ting",
        -10.012315327453564
      ],
      [
        "▁mbalimbali,",
        -10.01345463293864
      ],
      [
        "▁wafungwa",
        -10.013885885483544
      ],
      [
        "▁agiliaji",
        -10.014531154244898
      ],
      [
        "▁usumbufu",
        -10.015377177100191
      ],
      [
        "eleze",
        -10.015834998942903
      ],
      [
        "2.",
        -10.016014132023534
      ],
      [
        "▁ulivyo",
        -10.016186080608325
      ],
      [
        "▁inabidi",
        -10.016977319512534
      ],
      [
        "tazama",
        -10.017552896778769
      ],
      [
        "▁migodi",
        -10.017919688342182
      ],
      [
        "▁kuinua",
        -10.018011850753677
      ],
      [
        "▁uteuzi",
        -10.018768488052327
      ],
      [
        "fahamika",
        -10.018771775754496
      ],
      [
        "▁Makampuni",
        -10.018773808870256
      ],
      [
        "▁kubw",
        -10.018839458331149
      ],
      [
        "▁1995",
        -10.018842109692963
      ],
      [
        "shu",
        -10.01903064027913
      ],
      [
        "▁Omar",
        -10.019077899488828
      ],
      [
        "mp",
        -10.019149993491467
      ],
      [
        "▁yaliyopo",
        -10.019336889231322
      ],
      [
        "▁kusafirisha",
        -10.019984118171909
      ],
      [
        "▁Kilombero",
        -10.02018920050077
      ],
      [
        "▁In",
        -10.020243399961664
      ],
      [
        "cheza",
        -10.020761963808994
      ],
      [
        "unge",
        -10.020912340999235
      ],
      [
        "▁Te",
        -10.021085276154192
      ],
      [
        "▁madhubuti",
        -10.02135506728131
      ],
      [
        "Ku",
        -10.021880465739862
      ],
      [
        "▁kuonekana",
        -10.022064982160988
      ],
      [
        "▁jumuiya",
        -10.022171251719088
      ],
      [
        "▁Fund",
        -10.0223104267231
      ],
      [
        "▁Je",
        -10.02250435181815
      ],
      [
        "▁Mpanda",
        -10.023012609230426
      ],
      [
        "▁Maeneo",
        -10.023024986899976
      ],
      [
        "▁wanatumia",
        -10.02330969524041
      ],
      [
        "thibitisha",
        -10.023807474259977
      ],
      [
        "▁utu",
        -10.02382601056388
      ],
      [
        "▁mabaya",
        -10.023893309263896
      ],
      [
        "▁ukiwa",
        -10.024543077277382
      ],
      [
        "▁Madaktari",
        -10.0247309814646
      ],
      [
        "kati",
        -10.026385680036125
      ],
      [
        "rejea",
        -10.026405506102568
      ],
      [
        "TE",
        -10.027006750641355
      ],
      [
        "▁kiwanja",
        -10.027299392268937
      ],
      [
        "▁kujengwa",
        -10.028393202919323
      ],
      [
        "▁kutembelea",
        -10.02852144567962
      ],
      [
        "▁ninyi",
        -10.029055116191156
      ],
      [
        "▁Hu",
        -10.029345945472723
      ],
      [
        "▁41",
        -10.02943167507339
      ],
      [
        "▁75",
        -10.029678606429735
      ],
      [
        "▁wastaafu",
        -10.030253556517843
      ],
      [
        "▁SACCOS",
        -10.031589129161592
      ],
      [
        "▁mnamo",
        -10.03170456201712
      ],
      [
        "▁fungu",
        -10.032127508511724
      ],
      [
        "▁55",
        -10.03220102353877
      ],
      [
        "▁kukopa",
        -10.032284924294157
      ],
      [
        "▁Ga",
        -10.032774691646456
      ],
      [
        "▁Burundi",
        -10.032810016755215
      ],
      [
        "simamiwa",
        -10.0330915042377
      ],
      [
        "fikiri",
        -10.033398216164132
      ],
      [
        "▁watano",
        -10.033991238920065
      ],
      [
        "▁Shirikisho",
        -10.034173109353077
      ],
      [
        "▁ilivyokuwa",
        -10.034629733233224
      ],
      [
        "▁nilivyo",
        -10.034740212902442
      ],
      [
        "▁hukumu",
        -10.035006312464969
      ],
      [
        "▁tutaendelea",
        -10.03584469349073
      ],
      [
        "▁Umeme",
        -10.035976101355512
      ],
      [
        "▁Mbeya,",
        -10.037116283476925
      ],
      [
        "▁muundo",
        -10.038495374219456
      ],
      [
        "▁Kilimo,",
        -10.038610655062069
      ],
      [
        "▁43",
        -10.038715496289331
      ],
      [
        "(Makofi/Kicheko)",
        -10.039402867427953
      ],
      [
        "lalamika",
        -10.040132774509102
      ],
      [
        "ongeze",
        -10.040201689429171
      ],
      [
        "▁National",
        -10.041096717945376
      ],
      [
        "▁ukilinganisha",
        -10.041174012051954
      ],
      [
        "ipa",
        -10.04313170845648
      ],
      [
        "▁2004/2005,",
        -10.043239395591662
      ],
      [
        "▁wenyewe.",
        -10.043293379956468
      ],
      [
        "▁sukari",
        -10.04372815886934
      ],
      [
        "wasaidia",
        -10.043812931959678
      ],
      [
        "▁anga",
        -10.04591939541725
      ],
      [
        "▁nichangie",
        -10.045941168174403
      ],
      [
        "end",
        -10.04604320221431
      ],
      [
        "▁kuwe",
        -10.046661972140589
      ],
      [
        "▁37",
        -10.047961369073558
      ],
      [
        "▁hi",
        -10.048447732353328
      ],
      [
        "▁Masoko",
        -10.048973643861723
      ],
      [
        "▁chao",
        -10.050123047745334
      ],
      [
        "▁tuone",
        -10.050623561576357
      ],
      [
        "uzi",
        -10.050647425529892
      ],
      [
        "▁idara",
        -10.050699851222872
      ],
      [
        "hara",
        -10.050700103731254
      ],
      [
        "▁kufanyia",
        -10.051204066268388
      ],
      [
        "tawala",
        -10.05126829008334
      ],
      [
        "▁sayansi",
        -10.051407462171984
      ],
      [
        "▁popote",
        -10.051839741095195
      ],
      [
        "▁kukua",
        -10.052140023228125
      ],
      [
        "▁mashauri",
        -10.053002478059582
      ],
      [
        "▁akiba",
        -10.053666644901424
      ],
      [
        "▁uelewa",
        -10.05377058057313
      ],
      [
        "▁wanazo",
        -10.053899646401728
      ],
      [
        "▁Kiingereza",
        -10.05516278095186
      ],
      [
        "tosha",
        -10.055190581857984
      ],
      [
        "▁mwana",
        -10.05544173029877
      ],
      [
        "▁vinginevyo",
        -10.05592829695993
      ],
      [
        "▁Swali",
        -10.055978483033496
      ],
      [
        "▁Nadhani",
        -10.056949985943517
      ],
      [
        "▁matrekta",
        -10.057734407225452
      ],
      [
        "▁(P",
        -10.057834401907185
      ],
      [
        "▁Wakurugenzi",
        -10.058617836133743
      ],
      [
        "▁Mikopo",
        -10.058686376250373
      ],
      [
        "iwezesha",
        -10.059056751618924
      ],
      [
        "chukulia",
        -10.0594856810042
      ],
      [
        "▁majambazi",
        -10.059605791098914
      ],
      [
        "▁dhamira",
        -10.060387090353156
      ],
      [
        "▁2004.",
        -10.060845891124709
      ],
      [
        "fundisha",
        -10.06093578649547
      ],
      [
        "nipa",
        -10.061654202832262
      ],
      [
        "▁ziwe",
        -10.062003410045133
      ],
      [
        "▁watuhumiwa",
        -10.06204373683752
      ],
      [
        "▁Kusini,",
        -10.062178242364542
      ],
      [
        "▁Morogoro,",
        -10.062519104582682
      ],
      [
        "▁Watanzania.",
        -10.06260060066118
      ],
      [
        "▁rufaa",
        -10.06305171448774
      ],
      [
        "▁(B",
        -10.06379304009502
      ],
      [
        "▁itoe",
        -10.063991015708748
      ],
      [
        "▁(I",
        -10.065212177003511
      ],
      [
        "▁(The",
        -10.066091249586574
      ],
      [
        "▁48",
        -10.066442126083992
      ],
      [
        "▁Mahakimu",
        -10.066603823461726
      ],
      [
        "▁mabasi",
        -10.067526984373997
      ],
      [
        "▁sote",
        -10.067765451019454
      ],
      [
        "▁elfu",
        -10.06840173653906
      ],
      [
        "▁mwingi",
        -10.068541001739632
      ],
      [
        "DA",
        -10.068681854963351
      ],
      [
        "▁usanifu",
        -10.069289488246168
      ],
      [
        "zalishwa",
        -10.069453835071435
      ],
      [
        "▁2.",
        -10.06965935747798
      ],
      [
        "baini",
        -10.07017698097158
      ],
      [
        "▁mitihani",
        -10.070224262446477
      ],
      [
        "▁kufunga",
        -10.070776431849628
      ],
      [
        "▁wanaishi",
        -10.07083614930598
      ],
      [
        "▁wafanye",
        -10.071036285605562
      ],
      [
        "▁fi",
        -10.071473365814814
      ],
      [
        "▁kidogo.",
        -10.072756571168718
      ],
      [
        "MAMBO",
        -10.072862235954002
      ],
      [
        "▁Siasa",
        -10.072999519505387
      ],
      [
        "▁jamani",
        -10.073761973482416
      ],
      [
        "▁kuteuliwa",
        -10.074787958092156
      ],
      [
        "zungumzwa",
        -10.0748670181237
      ],
      [
        "saidie",
        -10.075423339763663
      ],
      [
        "vo",
        -10.075667855851176
      ],
      [
        "▁kumw",
        -10.075773037560424
      ],
      [
        "▁CCM,",
        -10.076052681462862
      ],
      [
        "▁Charles",
        -10.076451546888617
      ],
      [
        "▁SADC",
        -10.076480192495543
      ],
      [
        "▁Kibaha",
        -10.076558714540171
      ],
      [
        "▁Nya",
        -10.076828242725837
      ],
      [
        "▁Bila",
        -10.077133437757276
      ],
      [
        "▁kikundi",
        -10.078338914070317
      ],
      [
        "▁kubwa.",
        -10.078446980982516
      ],
      [
        "tiwa",
        -10.078521570339786
      ],
      [
        "▁kaskazini",
        -10.079154234387872
      ],
      [
        "▁riba",
        -10.080468004543334
      ],
      [
        "▁Amani",
        -10.08073334069656
      ],
      [
        "▁Mrisho",
        -10.08096166266255
      ],
      [
        "▁jipya",
        -10.080966319845096
      ],
      [
        "uli",
        -10.08143429326067
      ],
      [
        "▁Mbali",
        -10.08208587242957
      ],
      [
        "▁tafiti",
        -10.082162867214585
      ],
      [
        "▁hawata",
        -10.082990866501156
      ],
      [
        "▁zinaweza",
        -10.083260491998011
      ],
      [
        "▁kifupi",
        -10.083675748031087
      ],
      [
        "▁Tarime",
        -10.083678881135729
      ],
      [
        "▁Slaa",
        -10.083738873625052
      ],
      [
        "▁wote.",
        -10.08375077664594
      ],
      [
        "▁mfanyakazi",
        -10.084033957384095
      ],
      [
        "liona",
        -10.084336570401229
      ],
      [
        "▁To",
        -10.084858401625814
      ],
      [
        "ity",
        -10.085241247982072
      ],
      [
        "▁upembuzi",
        -10.085493309513511
      ],
      [
        "▁kuchukuliwa",
        -10.085496622797248
      ],
      [
        "ainisha",
        -10.086189247135067
      ],
      [
        "▁madaraja",
        -10.086397448770684
      ],
      [
        "▁nidhamu",
        -10.086400486350986
      ],
      [
        "▁Nchini",
        -10.086453605131698
      ],
      [
        "▁wanakuwa",
        -10.086925177559564
      ],
      [
        "▁Ngorongoro",
        -10.087884123591335
      ],
      [
        "▁Jambo",
        -10.088261923372606
      ],
      [
        "▁umw",
        -10.08829256254041
      ],
      [
        "▁Huu",
        -10.08831810521474
      ],
      [
        "▁shuleni",
        -10.088572046295283
      ],
      [
        "▁you",
        -10.08872036446292
      ],
      [
        "▁kujifunza",
        -10.08894045001898
      ],
      [
        "▁wafuasi",
        -10.08913735592628
      ],
      [
        "▁Japan",
        -10.089183387424807
      ],
      [
        "kula",
        -10.089417205440274
      ],
      [
        "▁imesema",
        -10.089535562216422
      ],
      [
        "▁Man",
        -10.090075004500276
      ],
      [
        "▁hauja",
        -10.090419433928917
      ],
      [
        "▁mgodi",
        -10.09095159482007
      ],
      [
        "▁Bagamoyo",
        -10.091037876634353
      ],
      [
        "▁mto",
        -10.091266941923733
      ],
      [
        "▁kilio",
        -10.091400954656136
      ],
      [
        "▁kimya",
        -10.09155734474266
      ],
      [
        "▁4,",
        -10.091623967107909
      ],
      [
        "▁con",
        -10.092664204395907
      ],
      [
        "▁mashtaka",
        -10.092779002451028
      ],
      [
        "badilisha",
        -10.09316409512335
      ],
      [
        ".00",
        -10.093689516873948
      ],
      [
        "▁mwanafunzi",
        -10.093848566796131
      ],
      [
        "▁kuajiri",
        -10.093866028200146
      ],
      [
        "badilika",
        -10.094229714715947
      ],
      [
        "▁ngozi",
        -10.0946593777533
      ],
      [
        "▁Tuli",
        -10.095008515906986
      ],
      [
        "embe",
        -10.095142809477448
      ],
      [
        "▁Vilevile",
        -10.095647544993351
      ],
      [
        "idi",
        -10.095874663510273
      ],
      [
        "▁tunafanya",
        -10.096087438313363
      ],
      [
        "▁Zimbabwe",
        -10.097072023265715
      ],
      [
        "▁marufuku",
        -10.097361381635343
      ],
      [
        "▁tunahitaji",
        -10.097389510472947
      ],
      [
        "bidi",
        -10.098236410528491
      ],
      [
        "▁yupo",
        -10.098285631854017
      ],
      [
        "▁Kikao",
        -10.098299441659623
      ],
      [
        "▁Agosti",
        -10.098609951942649
      ],
      [
        "▁Mpya",
        -10.099279033094804
      ],
      [
        "▁kidato",
        -10.100121636300338
      ],
      [
        "▁mtazamo",
        -10.101043415202042
      ],
      [
        "▁wangapi",
        -10.101063552573669
      ],
      [
        "▁wamesema",
        -10.101135478792044
      ],
      [
        "▁Mahakamani",
        -10.101220091216216
      ],
      [
        "▁Hilo",
        -10.10136142522826
      ],
      [
        "hakikisha",
        -10.101936447929369
      ],
      [
        "▁Peter",
        -10.101997184578718
      ],
      [
        "chukue",
        -10.103470596600872
      ],
      [
        "▁haziku",
        -10.103472094838269
      ],
      [
        "▁kazini",
        -10.103690864252846
      ],
      [
        "▁budi",
        -10.104218230035691
      ],
      [
        "▁mbili.",
        -10.104278116507103
      ],
      [
        "▁laki",
        -10.104399356261451
      ],
      [
        "▁umakini",
        -10.104738615830213
      ],
      [
        "▁uliopita",
        -10.10516858528326
      ],
      [
        "▁44",
        -10.105273075983256
      ],
      [
        "▁2020",
        -10.105876636041408
      ],
      [
        "ulizwa",
        -10.10609910879911
      ],
      [
        "▁vyenye",
        -10.106806138200673
      ],
      [
        "▁mwalimu",
        -10.106896491644385
      ],
      [
        "▁Management",
        -10.107196797324468
      ],
      [
        "CO",
        -10.107407202043396
      ],
      [
        "▁kuchimba",
        -10.107808443424942
      ],
      [
        "▁kumalizika",
        -10.108154568795104
      ],
      [
        "▁Tunaomba",
        -10.10858230303718
      ],
      [
        "▁2019",
        -10.108610890562955
      ],
      [
        "▁2007",
        -10.108667277050989
      ],
      [
        "▁kuepuka",
        -10.109073822684348
      ],
      [
        "▁inaonyesha",
        -10.10930904807023
      ],
      [
        "▁mahusiano",
        -10.109376328987064
      ],
      [
        "▁MITAA",
        -10.110741787428138
      ],
      [
        "▁KUWA",
        -10.111839551391714
      ],
      [
        "▁kutunza",
        -10.11188593498624
      ],
      [
        "▁akinamama",
        -10.112170080785887
      ],
      [
        "▁havi",
        -10.112307651948486
      ],
      [
        "co",
        -10.112497673028276
      ],
      [
        "▁waende",
        -10.112519958893587
      ],
      [
        "▁Musoma",
        -10.112558591602284
      ],
      [
        "▁Do",
        -10.113194162117097
      ],
      [
        "▁nzuri.",
        -10.11349144225024
      ],
      [
        "▁wigo",
        -10.113502142475015
      ],
      [
        "▁kuingiza",
        -10.11361087122114
      ],
      [
        "mani",
        -10.113769434406024
      ],
      [
        "▁kujaribu",
        -10.114124497361392
      ],
      [
        "▁Za",
        -10.114544542873093
      ],
      [
        "▁viti",
        -10.11471771224056
      ],
      [
        "oto",
        -10.114749341111962
      ],
      [
        "▁wavuvi",
        -10.114752819935706
      ],
      [
        "tenge",
        -10.114936510536776
      ],
      [
        "15",
        -10.115491292121796
      ],
      [
        "oko",
        -10.11566543598939
      ],
      [
        "▁Fa",
        -10.115950938816544
      ],
      [
        "ongezea",
        -10.117021116131829
      ],
      [
        "▁kuunganisha",
        -10.117022029539026
      ],
      [
        "▁mwili",
        -10.117133210885898
      ],
      [
        "▁sherehe",
        -10.117779739887268
      ],
      [
        "▁uendelezaji",
        -10.117779808119336
      ],
      [
        "ere",
        -10.117834813633523
      ],
      [
        "▁Di",
        -10.11801273156723
      ],
      [
        "▁usafi",
        -10.11825450308334
      ],
      [
        "▁39",
        -10.118550130978656
      ],
      [
        "/=",
        -10.118902213953913
      ],
      [
        "ari",
        -10.119038634867769
      ],
      [
        "▁Mwana",
        -10.119053137758502
      ],
      [
        "▁azimio",
        -10.120596634017682
      ],
      [
        "01",
        -10.12084958580072
      ],
      [
        "▁uwazi",
        -10.12159414737926
      ],
      [
        "▁fedha.",
        -10.121719967126865
      ],
      [
        "chagua",
        -10.12304617785948
      ],
      [
        "ris",
        -10.123235184892842
      ],
      [
        "▁are",
        -10.12341384081046
      ],
      [
        "▁TASAF",
        -10.123421680679002
      ],
      [
        "▁Raia",
        -10.123490771753536
      ],
      [
        "▁kuhudumia",
        -10.123608067008067
      ],
      [
        "ajiriwa",
        -10.123720714485142
      ],
      [
        "fanyi",
        -10.12486904228706
      ],
      [
        "▁Mabadiliko",
        -10.12530934446496
      ],
      [
        "▁Kabla",
        -10.125310020898072
      ],
      [
        "▁Paul",
        -10.126520824357698
      ],
      [
        "▁lao",
        -10.12673754430612
      ],
      [
        "▁Kikwete,",
        -10.127208796868787
      ],
      [
        "▁wagombea",
        -10.12728052502624
      ],
      [
        "▁ufuatiliaji",
        -10.12814745415108
      ],
      [
        "(1)",
        -10.12900486579575
      ],
      [
        "wafanya",
        -10.12912956473588
      ],
      [
        "',",
        -10.129841024658903
      ],
      [
        "▁1999",
        -10.130157440550652
      ],
      [
        "▁takribani",
        -10.130347379371464
      ],
      [
        "uma",
        -10.130365460972364
      ],
      [
        "haribu",
        -10.130636700800157
      ],
      [
        "▁2005/2006",
        -10.130717170523564
      ],
      [
        "▁Daraja",
        -10.131068364084223
      ],
      [
        "▁chuma",
        -10.13144447665636
      ],
      [
        "mekuwa",
        -10.131631375605297
      ],
      [
        "▁hayaja",
        -10.131909695222754
      ],
      [
        "shambulia",
        -10.131937840577503
      ],
      [
        "▁mabenki",
        -10.131944265631583
      ],
      [
        "▁tafsiri",
        -10.1321877841892
      ],
      [
        "▁Benjamin",
        -10.132896297796886
      ],
      [
        "mtaka",
        -10.133263853666133
      ],
      [
        "▁Pro",
        -10.133475880920209
      ],
      [
        "▁tik",
        -10.134374757278104
      ],
      [
        "DKT",
        -10.1348038759663
      ],
      [
        "▁letu.",
        -10.135014963372548
      ],
      [
        "faidika",
        -10.13524609126425
      ],
      [
        "▁kuchunguza",
        -10.135609213955991
      ],
      [
        "▁saini",
        -10.135804461741523
      ],
      [
        "iaka",
        -10.135851044037093
      ],
      [
        "▁zao,",
        -10.136657584759645
      ],
      [
        "▁kumpa",
        -10.137381999634048
      ],
      [
        "hebu",
        -10.137383573367549
      ],
      [
        "▁unaendelea",
        -10.137514347220025
      ],
      [
        "tamka",
        -10.137717691547252
      ],
      [
        "▁pindi",
        -10.138112406846542
      ],
      [
        "▁Africa",
        -10.139198073402511
      ],
      [
        "▁mkazo",
        -10.139234535242087
      ],
      [
        "▁matarajio",
        -10.139581532574132
      ],
      [
        "ele",
        -10.13983585336309
      ],
      [
        "▁atu",
        -10.139957620093009
      ],
      [
        "▁vifungu",
        -10.140652153235925
      ],
      [
        "▁(3)",
        -10.14071364449712
      ],
      [
        "▁52",
        -10.14091713776594
      ],
      [
        "▁Nataka",
        -10.142166857607664
      ],
      [
        "ulu",
        -10.142215277158035
      ],
      [
[...]
